<blk> 0
<sos/eos> 1
<unk> 2
羞 3
speci@@ 4
俾 5
煅 6
酰 7
ul@@ 8
擞 9
内 10
n 11
坻 12
x@@ 13
沟 14
幻 15
孵 16
亏 17
晃 18
un@@ 19
resul@@ 20
威 21
藤 22
紹 23
坍 24
睚 25
裢 26
e@@ 27
塾 28
ac@@ 29
贶 30
邋 31
who@@ 32
钙 33
骗 34
ich 35
蓦 36
魁 37
you 38
檐 39
允 40
劾 41
喔 42
diff@@ 43
淀 44
邊 45
挪 46
郴 47
吮 48
闸 49
碣 50
we@@ 51
跛 52
叩 53
课 54
ker 55
铢 56
趸 57
last 58
噫 59
钩 60
low 61
髯 62
岢 63
猕 64
呋 65
蓖 66
濒 67
妖 68
汗 69
堂 70
花 71
牺 72
奄 73
鹜 74
姐 75
嗳 76
伦 77
意 78
丢 79
秩 80
憶 81
臾 82
萝 83
知 84
偷 85
军 86
尤 87
探 88
real 89
袭 90
潜 91
屄 92
汐 93
sel@@ 94
项 95
ants 96
show 97
嗎 98
冀 99
蜿 100
葳 101
俦 102
瓦 103
刎 104
ance 105
什 106
兒 107
裸 108
葩 109
咕 110
沛 111
are@@ 112
骂 113
俪 114
婴 115
绊 116
截 117
暮 118
犄 119
褭 120
歧 121
趋 122
坠 123
about 124
嵇 125
凉 126
惶 127
泼 128
ga@@ 129
規 130
婚 131
钨 132
门 133
蓬 134
曉 135
瀛 136
鬣 137
论 138
紫 139
铵 140
匕 141
限 142
infor@@ 143
昑 144
頭 145
矾 146
酷 147
坟 148
刑 149
ins 150
座 151
li@@ 152
户 153
雀 154
绻 155
揽 156
光 157
沣 158
轩 159
荆 160
椰 161
捐 162
鸾 163
ri@@ 164
ving 165
面 166
拧 167
丘 168
同 169
原 170
贫 171
咻 172
靶 173
ho@@ 174
眉 175
扽 176
技 177
颜 178
傻 179
枰 180
邀 181
肤 182
滋 183
du@@ 184
铖 185
search 186
淘 187
你 188
妣 189
咎 190
降 191
蒜 192
齿 193
费 194
浈 195
need 196
铂 197
藐 198
亿 199
庙 200
措 201
彦 202
崇 203
滨 204
烫 205
骤 206
萋 207
轨 208
汹 209
墅 210
慑 211
漢 212
卟 213
缠 214
醪 215
掷 216
細 217
翎 218
遮 219
has 220
槎 221
m 222
广 223
乡 224
ons 225
岷 226
媗 227
辞 228
如 229
帛 230
遒 231
serv@@ 232
蜜 233
孽 234
洽 235
划 236
欠 237
肾 238
校 239
晔 240
腰 241
库 242
萌 243
壕 244
ating 245
短 246
蠻 247
绅 248
tal@@ 249
晦 250
請 251
矫 252
way 253
犍 254
ated 255
障 256
观 257
肱 258
瓷 259
家 260
茸 261
窄 262
few 263
鸯 264
轰 265
排 266
喃 267
卸 268
逋 269
缤 270
pa@@ 271
璀 272
燈 273
cas@@ 274
man 275
貌 276
琥 277
谚 278
亡 279
總 280
爱 281
熏 282
拆 283
凋 284
噎 285
潞 286
时 287
ice 288
蟑 289
牟 290
穗 291
嗦 292
属 293
遐 294
疣 295
玉 296
怀 297
母 298
慜 299
ve@@ 300
浙 301
宵 302
遢 303
東 304
盘 305
刿 306
why 307
盯 308
sen@@ 309
橄 310
讴 311
ans@@ 312
鲛 313
惠 314
古 315
锹 316
恸 317
梏 318
汜 319
硝 320
溏 321
pen@@ 322
侮 323
運 324
耋 325
播 326
淮 327
蕴 328
ghts 329
豢 330
怯 331
酯 332
嬅 333
使 334
嫂 335
踹 336
崚 337
窠 338
爺 339
耘 340
紅 341
方 342
鹌 343
潍 344
仍 345
's 346
馏 347
策 348
噱 349
ems 350
张 351
射 352
ge 353
辨 354
逾 355
璁 356
许 357
噘 358
loc@@ 359
霹 360
汨 361
tle 362
继 363
讶 364
濑 365
绍 366
决 367
冕 368
岀 369
瑾 370
脐 371
匹 372
猢 373
嗅 374
眬 375
薹 376
谴 377
伺 378
炭 379
ic@@ 380
羿 381
郡 382
笆 383
谱 384
菀 385
吻 386
尝 387
枸 388
樊 389
赂 390
嘿 391
邕 392
犟 393
挛 394
禺 395
嗙 396
千 397
幕 398
辣 399
玛 400
eng@@ 401
这 402
迂 403
樱 404
式 405
訪 406
冼 407
眷 408
耕 409
岚 410
鸽 411
做 412
蜢 413
廖 414
俸 415
吨 416
蝣 417
胄 418
狞 419
咒 420
摹 421
哥 422
譬 423
iz@@ 424
评 425
预 426
褛 427
踌 428
杼 429
檀 430
de 431
违 432
氣 433
獒 434
茂 435
狠 436
枞 437
循 438
仝 439
剐 440
te 441
试 442
忽 443
ang@@ 444
勺 445
瀑 446
彬 447
婷 448
惮 449
牢 450
said 451
骠 452
塑 453
瓶 454
渗 455
弧 456
冲 457
踏 458
唳 459
褒 460
倜 461
back 462
洋 463
see 464
郸 465
撘 466
呣 467
wat@@ 468
os 469
淄 470
国 471
倥 472
ear@@ 473
却 474
痊 475
砥 476
孕 477
逍 478
禇 479
搓 480
wn 481
辕 482
吆 483
歲 484
黄 485
难 486
格 487
阚 488
鸵 489
炫 490
选 491
夏 492
炁 493
谬 494
ool 495
讼 496
罚 497
楦 498
渭 499
u@@ 500
鄱 501
奘 502
min@@ 503
琏 504
缕 505
搪 506
霁 507
泱 508
乾 509
惘 510
芩 511
谀 512
捯 513
描 514
结 515
窝 516
收 517
鹭 518
蝼 519
develop@@ 520
直 521
mem@@ 522
永 523
狈 524
設 525
杀 526
略 527
叠 528
jo@@ 529
岖 530
兢 531
鹬 532
垢 533
艾 534
绫 535
嫔 536
域 537
吵 538
赁 539
蹋 540
膜 541
料 542
征 543
聋 544
绌 545
带 546
蠛 547
靥 548
ep 549
擒 550
巍 551
ange 552
宅 553
經 554
氛 555
缮 556
柏 557
赅 558
we 559
舌 560
末 561
蝶 562
ward 563
挎 564
跨 565
grou@@ 566
溢 567
蜕 568
ound 569
秽 570
敝 571
勤 572
斌 573
樨 574
呲 575
掮 576
璋 577
簇 578
撺 579
辉 580
血 581
cl@@ 582
辎 583
mar@@ 584
ties 585
pic@@ 586
郢 587
ay 588
掘 589
柔 590
虔 591
ome@@ 592
蹄 593
砒 594
攝 595
馄 596
掩 597
孱 598
肃 599
內 600
罘 601
烩 602
袅 603
貴 604
涩 605
head 606
弁 607
交 608
cro@@ 609
扳 610
厨 611
身 612
鹑 613
魄 614
述 615
猿 616
阎 617
思 618
髈 619
村 620
杓 621
out@@ 622
b 623
晖 624
涛 625
枕 626
鳊 627
嶂 628
钉 629
哉 630
尅 631
踵 632
调 633
吗 634
掠 635
焯 636
cess 637
ba@@ 638
夥 639
取 640
饸 641
fa@@ 642
珺 643
猴 644
轳 645
番 646
亩 647
谈 648
盅 649
these 650
浜 651
临 652
霆 653
椟 654
輕 655
com@@ 656
编 657
度 658
馕 659
撂 660
巧 661
孟 662
迥 663
ann@@ 664
志 665
颓 666
gan@@ 667
几 668
袱 669
颠 670
呢 671
向 672
凝 673
唆 674
嫉 675
卅 676
蹇 677
備 678
径 679
讓 680
涯 681
瘘 682
忳 683
宫 684
when 685
翱 686
er@@ 687
though 688
必 689
撩 690
垣 691
否 692
蔽 693
ply 694
兖 695
耷 696
蛐 697
柞 698
帔 699
ash@@ 700
腧 701
矜 702
旻 703
迄 704
址 705
family 706
犹 707
回 708
占 709
氐 710
箪 711
拥 712
語 713
筏 714
遁 715
栈 716
intere@@ 717
驹 718
cap@@ 719
引 720
qui@@ 721
als 722
沼 723
笔 724
溪 725
驷 726
燚 727
臨 728
伊 729
筝 730
绳 731
霰 732
tional 733
笼 734
very 735
八 736
嚏 737
um@@ 738
麋 739
详 740
婶 741
埔 742
锑 743
戮 744
蠕 745
售 746
陽 747
逵 748
羯 749
粥 750
燃 751
创 752
芝 753
憨 754
援 755
峨 756
泣 757
毛 758
酌 759
鄙 760
洪 761
禀 762
峦 763
叮 764
普 765
缜 766
暖 767
尋 768
摧 769
all@@ 770
峻 771
冤 772
逝 773
圓 774
ti@@ 775
磴 776
馑 777
场 778
陈 779
圪 780
going 781
er 782
缭 783
酵 784
缄 785
創 786
切 787
fe@@ 788
砰 789
灯 790
娃 791
涪 792
艇 793
妥 794
see@@ 795
畲 796
掴 797
颐 798
痣 799
趄 800
缔 801
論 802
锢 803
阪 804
凿 805
钒 806
捷 807
集 808
箱 809
鹃 810
哔 811
啵 812
耨 813
first 814
翕 815
郫 816
鸥 817
喹 818
碓 819
介 820
磋 821
液 822
骄 823
跄 824
咽 825
狭 826
郁 827
魃 828
雉 829
和 830
滓 831
誉 832
氢 833
ban@@ 834
风 835
ari@@ 836
蝈 837
蛋 838
悍 839
匮 840
玖 841
咩 842
诠 843
am 844
妄 845
镓 846
隍 847
滟 848
伥 849
pe 850
幢 851
膛 852
周 853
chil@@ 854
賣 855
注 856
反 857
琍 858
蚜 859
hel@@ 860
拈 861
徵 862
亞 863
穴 864
嬛 865
ase 866
out 867
淑 868
妊 869
簡 870
翅 871
欢 872
戎 873
喽 874
草 875
饲 876
嗵 877
昀 878
远 879
泳 880
缎 881
摈 882
to 883
孩 884
蟆 885
ad 886
究 887
vir@@ 888
铉 889
统 890
dic@@ 891
uring 892
灿 893
bl@@ 894
掾 895
唷 896
契 897
凰 898
瘫 899
pi@@ 900
砚 901
洙 902
蹒 903
崽 904
gs 905
鱿 906
旌 907
邰 908
顾 909
犒 910
give 911
態 912
ally 913
肺 914
tech@@ 915
提 916
隧 917
ects 918
鞭 919
炉 920
風 921
each 922
娑 923
co@@ 924
褴 925
or 926
瞌 927
倒 928
株 929
甸 930
報 931
逮 932
pt 933
槊 934
陷 935
th@@ 936
岳 937
浦 938
趿 939
稱 940
离 941
no 942
批 943
桦 944
渥 945
醛 946
坯 947
肥 948
沁 949
嘀 950
lat@@ 951
铱 952
ent 953
鄢 954
色 955
詹 956
郓 957
牲 958
扪 959
铛 960
写 961
钱 962
舶 963
剖 964
仨 965
侉 966
厘 967
延 968
it's 969
郄 970
充 971
贲 972
讽 973
东 974
愚 975
敢 976
姆 977
呷 978
曜 979
煤 980
言 981
sol@@ 982
蚊 983
皎 984
縠 985
娘 986
耗 987
荥 988
秭 989
朗 990
ir@@ 991
搀 992
幾 993
彤 994
珵 995
咤 996
嘘 997
惫 998
鲨 999
锱 1000
镊 1001
big 1002
俅 1003
pri@@ 1004
颧 1005
鹊 1006
功 1007
珞 1008
别 1009
浪 1010
郝 1011
裏 1012
杈 1013
th 1014
蜗 1015
雒 1016
fac@@ 1017
奈 1018
柄 1019
'@@ 1020
哽 1021
蘼 1022
蚁 1023
柒 1024
舜 1025
中 1026
猩 1027
玮 1028
兰 1029
侑 1030
吶 1031
sta@@ 1032
舆 1033
pl@@ 1034
话 1035
裡 1036
罗 1037
赫 1038
腴 1039
艄 1040
ide@@ 1041
训 1042
将 1043
顶 1044
词 1045
转 1046
狀 1047
洹 1048
乳 1049
歘 1050
岱 1051
enti@@ 1052
麽 1053
碑 1054
勇 1055
怒 1056
lear@@ 1057
酪 1058
给 1059
粉 1060
咆 1061
窈 1062
怖 1063
ory 1064
藓 1065
鄰 1066
奥 1067
疙 1068
豚 1069
跶 1070
佯 1071
鹞 1072
琉 1073
鞠 1074
协 1075
绉 1076
焙 1077
份 1078
顧 1079
丙 1080
蛄 1081
盹 1082
诧 1083
辩 1084
y 1085
超 1086
娌 1087
牍 1088
嫫 1089
踝 1090
蜇 1091
伫 1092
敦 1093
瀣 1094
ach 1095
邑 1096
牵 1097
闿 1098
莪 1099
inv@@ 1100
裱 1101
另 1102
荇 1103
代 1104
泔 1105
迩 1106
源 1107
次 1108
許 1109
铄 1110
聿 1111
蚌 1112
tiv@@ 1113
葛 1114
笫 1115
some 1116
痢 1117
tical 1118
fre@@ 1119
苗 1120
甲 1121
順 1122
磕 1123
铝 1124
减 1125
诲 1126
恁 1127
壹 1128
land 1129
羁 1130
荷 1131
况 1132
窕 1133
迫 1134
her@@ 1135
杳 1136
癞 1137
so 1138
弹 1139
檬 1140
攤 1141
褙 1142
辅 1143
此 1144
tain 1145
峡 1146
设 1147
sho@@ 1148
阮 1149
钕 1150
返 1151
棠 1152
shi@@ 1153
跌 1154
酮 1155
熬 1156
蹂 1157
粽 1158
洺 1159
锴 1160
换 1161
et@@ 1162
泊 1163
well 1164
阱 1165
涟 1166
扮 1167
留 1168
虎 1169
health 1170
珏 1171
昌 1172
肖 1173
into 1174
分 1175
毓 1176
har@@ 1177
祁 1178
music 1179
厌 1180
坛 1181
茜 1182
彼 1183
after 1184
溯 1185
鹕 1186
祈 1187
je@@ 1188
粒 1189
绸 1190
篇 1191
eci@@ 1192
竽 1193
艳 1194
湖 1195
洌 1196
城 1197
勰 1198
ed 1199
休 1200
ile 1201
可 1202
粤 1203
舔 1204
辍 1205
挽 1206
勒 1207
棕 1208
赧 1209
all 1210
潭 1211
蜴 1212
托 1213
程 1214
晟 1215
ger 1216
锅 1217
蜓 1218
袂 1219
橇 1220
more 1221
裆 1222
狎 1223
ant 1224
瘪 1225
制 1226
居 1227
懿 1228
轻 1229
埭 1230
暴 1231
用 1232
information 1233
泗 1234
谛 1235
嚯 1236
滥 1237
铁 1238
椭 1239
肿 1240
锞 1241
嘟 1242
焗 1243
镍 1244
碰 1245
給 1246
哒 1247
媲 1248
税 1249
ack 1250
镆 1251
摞 1252
fi@@ 1253
inte@@ 1254
盱 1255
ab@@ 1256
宓 1257
現 1258
呀 1259
烙 1260
凡 1261
偶 1262
those 1263
恋 1264
储 1265
踪 1266
拐 1267
禾 1268
豇 1269
笠 1270
house 1271
极 1272
安 1273
逊 1274
things 1275
傈 1276
拗 1277
杖 1278
溶 1279
that 1280
clo@@ 1281
单 1282
馆 1283
觥 1284
medi@@ 1285
滕 1286
柩 1287
結 1288
read@@ 1289
静 1290
怕 1291
茬 1292
哑 1293
fri@@ 1294
tim@@ 1295
ty@@ 1296
茹 1297
宪 1298
祀 1299
筱 1300
蕾 1301
怿 1302
江 1303
貔 1304
羚 1305
垂 1306
哎 1307
阙 1308
癜 1309
咪 1310
罂 1311
琦 1312
陆 1313
坨 1314
ome 1315
憎 1316
狐 1317
熱 1318
奸 1319
常 1320
型 1321
蹶 1322
峪 1323
氯 1324
轮 1325
up@@ 1326
竖 1327
投 1328
try 1329
肉 1330
袤 1331
沫 1332
骅 1333
驚 1334
昆 1335
辫 1336
ge@@ 1337
ton 1338
图 1339
莫 1340
瞥 1341
框 1342
筋 1343
拮 1344
ause 1345
糨 1346
拖 1347
醮 1348
扣 1349
钻 1350
殖 1351
突 1352
澧 1353
bur@@ 1354
阅 1355
洁 1356
啸 1357
藝 1358
防 1359
痴 1360
哂 1361
噼 1362
唐 1363
穰 1364
视 1365
吾 1366
邓 1367
珊 1368
箓 1369
遭 1370
幸 1371
change 1372
纲 1373
en@@ 1374
light 1375
橛 1376
p@@ 1377
架 1378
bar@@ 1379
铠 1380
same 1381
锂 1382
铅 1383
谢 1384
枣 1385
立 1386
厚 1387
宗 1388
岫 1389
丶 1390
眯 1391
啷 1392
懂 1393
歹 1394
着 1395
迢 1396
弦 1397
痈 1398
貉 1399
骞 1400
哮 1401
犀 1402
嵬 1403
磐 1404
徉 1405
歪 1406
ple 1407
斜 1408
桡 1409
壶 1410
gl@@ 1411
搅 1412
忌 1413
习 1414
訊 1415
韶 1416
余 1417
鲏 1418
救 1419
彝 1420
pur@@ 1421
form 1422
br@@ 1423
参 1424
轿 1425
踘 1426
币 1427
different 1428
姻 1429
付 1430
槍 1431
col@@ 1432
璟 1433
喘 1434
谋 1435
诱 1436
胁 1437
da@@ 1438
趵 1439
炳 1440
碍 1441
he@@ 1442
官 1443
exc@@ 1444
鲜 1445
曳 1446
众 1447
袄 1448
辆 1449
妃 1450
痂 1451
棟 1452
莆 1453
ki@@ 1454
诃 1455
剛 1456
犷 1457
寻 1458
悲 1459
sur@@ 1460
徨 1461
绰 1462
帘 1463
進 1464
蚕 1465
虽 1466
話 1467
堪 1468
blo@@ 1469
羌 1470
恿 1471
窃 1472
畢 1473
雷 1474
绝 1475
屌 1476
候 1477
煜 1478
蹲 1479
陌 1480
锗 1481
our 1482
鼠 1483
骷 1484
赣 1485
暇 1486
赐 1487
ol@@ 1488
喟 1489
桑 1490
饹 1491
霭 1492
苛 1493
ass@@ 1494
灶 1495
耆 1496
瀚 1497
动 1498
撬 1499
維 1500
醫 1501
芽 1502
氨 1503
配 1504
being 1505
r 1506
叹 1507
蛆 1508
g@@ 1509
too 1510
浅 1511
兔 1512
ces 1513
囔 1514
ty 1515
蚱 1516
em@@ 1517
潴 1518
砾 1519
鬃 1520
阁 1521
care 1522
旱 1523
畿 1524
圜 1525
a@@ 1526
蕉 1527
稗 1528
寿 1529
焊 1530
党 1531
端 1532
愎 1533
惟 1534
强 1535
剑 1536
ch@@ 1537
煨 1538
buil@@ 1539
that's 1540
沿 1541
践 1542
夤 1543
狸 1544
your 1545
携 1546
甚 1547
荭 1548
proble@@ 1549
嗝 1550
稀 1551
炜 1552
pho@@ 1553
噗 1554
mic@@ 1555
邝 1556
栏 1557
loo@@ 1558
赎 1559
篙 1560
毙 1561
拜 1562
百 1563
楞 1564
饼 1565
訇 1566
馈 1567
倍 1568
湣 1569
质 1570
娣 1571
粮 1572
正 1573
侏 1574
凶 1575
莹 1576
涵 1577
绔 1578
囧 1579
璃 1580
蟒 1581
遗 1582
state 1583
哟 1584
ire 1585
筷 1586
ca@@ 1587
执 1588
哇 1589
夺 1590
态 1591
ason 1592
梅 1593
幹 1594
予 1595
蜊 1596
叔 1597
缙 1598
節 1599
小 1600
苕 1601
喧 1602
躬 1603
壮 1604
榴 1605
毂 1606
d@@ 1607
雳 1608
ic 1609
dis@@ 1610
席 1611
ue 1612
ain 1613
瑕 1614
晨 1615
ad@@ 1616
橘 1617
主 1618
隋 1619
猡 1620
紊 1621
ne@@ 1622
浑 1623
姊 1624
壁 1625
灭 1626
贪 1627
匀 1628
劲 1629
落 1630
箫 1631
纺 1632
枳 1633
犁 1634
j@@ 1635
滂 1636
痪 1637
哼 1638
讣 1639
呻 1640
垫 1641
宕 1642
does 1643
饪 1644
好 1645
cho@@ 1646
滏 1647
ine 1648
弄 1649
旗 1650
茵 1651
公 1652
蜃 1653
菽 1654
腐 1655
嫒 1656
痞 1657
诵 1658
滑 1659
莲 1660
壅 1661
and@@ 1662
惹 1663
泷 1664
ates 1665
慌 1666
挝 1667
翟 1668
铬 1669
爷 1670
醍 1671
實 1672
矟 1673
id@@ 1674
丑 1675
娩 1676
亭 1677
躇 1678
說 1679
寫 1680
ans 1681
蒙 1682
won@@ 1683
汽 1684
自 1685
胎 1686
十 1687
蟹 1688
ta@@ 1689
週 1690
坳 1691
鲑 1692
les 1693
娈 1694
脏 1695
岩 1696
崭 1697
蕃 1698
烨 1699
豆 1700
激 1701
县 1702
薙 1703
赠 1704
祺 1705
著 1706
滢 1707
cen@@ 1708
明 1709
屈 1710
孢 1711
keep 1712
heal@@ 1713
趣 1714
ld 1715
蹈 1716
病 1717
嗖 1718
能 1719
殁 1720
洮 1721
戬 1722
麝 1723
筹 1724
posi@@ 1725
絕 1726
搞 1727
菌 1728
佣 1729
诚 1730
莘 1731
瑰 1732
检 1733
懑 1734
喏 1735
颢 1736
崔 1737
肆 1738
屠 1739
浆 1740
ever@@ 1741
芗 1742
伞 1743
bec@@ 1744
搜 1745
贿 1746
around 1747
谗 1748
噬 1749
酐 1750
椁 1751
数 1752
ned 1753
吃 1754
浚 1755
鬟 1756
默 1757
暼 1758
sy@@ 1759
算 1760
危 1761
漪 1762
胯 1763
蓟 1764
烘 1765
脖 1766
流 1767
肠 1768
饬 1769
惨 1770
線 1771
馔 1772
史 1773
奕 1774
ill 1775
photo@@ 1776
杯 1777
願 1778
皮 1779
耙 1780
近 1781
win@@ 1782
岸 1783
麸 1784
噁 1785
抬 1786
啪 1787
ters 1788
story 1789
力 1790
蘭 1791
陉 1792
侃 1793
慈 1794
跳 1795
枇 1796
剋 1797
胪 1798
痰 1799
el 1800
um 1801
椹 1802
谄 1803
英 1804
ough 1805
assi@@ 1806
第 1807
匈 1808
奔 1809
under 1810
聘 1811
荒 1812
ill@@ 1813
泠 1814
媪 1815
镚 1816
侨 1817
without 1818
痤 1819
枋 1820
what 1821
b@@ 1822
赓 1823
眺 1824
号 1825
蔡 1826
贵 1827
谜 1828
京 1829
哪 1830
錄 1831
觞 1832
响 1833
tri@@ 1834
弈 1835
锌 1836
茨 1837
禧 1838
下 1839
鳗 1840
擅 1841
触 1842
飯 1843
cri@@ 1844
舵 1845
這 1846
匠 1847
荃 1848
乍 1849
摄 1850
泅 1851
炮 1852
tur@@ 1853
pres@@ 1854
恨 1855
湎 1856
铭 1857
z 1858
颀 1859
土 1860
蜉 1861
己 1862
栅 1863
拷 1864
孬 1865
摸 1866
跟 1867
狙 1868
sted 1869
韪 1870
嶙 1871
嫣 1872
筵 1873
sts 1874
圌 1875
bi@@ 1876
捱 1877
懒 1878
郭 1879
chec@@ 1880
镒 1881
adi@@ 1882
間 1883
嬴 1884
宦 1885
丐 1886
舟 1887
掖 1888
also 1889
午 1890
桠 1891
署 1892
馅 1893
癍 1894
焉 1895
兮 1896
後 1897
塞 1898
稷 1899
针 1900
浇 1901
關 1902
遥 1903
诶 1904
铩 1905
旷 1906
刍 1907
艹 1908
讀 1909
躯 1910
菏 1911
囓 1912
凤 1913
叽 1914
护 1915
i@@ 1916
庇 1917
ond 1918
笋 1919
咧 1920
巫 1921
per@@ 1922
刨 1923
幡 1924
傍 1925
辑 1926
鲍 1927
醉 1928
爾 1929
澹 1930
呈 1931
鞅 1932
满 1933
三 1934
任 1935
梭 1936
rel@@ 1937
些 1938
剌 1939
警 1940
瓢 1941
衲 1942
颤 1943
pro@@ 1944
佘 1945
督 1946
吩 1947
废 1948
怂 1949
遽 1950
談 1951
鲤 1952
嗓 1953
削 1954
莴 1955
ak@@ 1956
朋 1957
翼 1958
辙 1959
驶 1960
昇 1961
汇 1962
沏 1963
蒿 1964
悼 1965
无 1966
菲 1967
灵 1968
钜 1969
ent@@ 1970
吠 1971
韩 1972
w@@ 1973
豪 1974
龜 1975
while 1976
舊 1977
旭 1978
啉 1979
平 1980
脾 1981
龄 1982
view 1983
桔 1984
关 1985
化 1986
来 1987
st@@ 1988
患 1989
咨 1990
仲 1991
骰 1992
片 1993
聂 1994
彗 1995
跃 1996
鹤 1997
潋 1998
嚴 1999
报 2000
硌 2001
弭 2002
卧 2003
蛟 2004
奏 2005
袒 2006
捍 2007
濂 2008
哆 2009
re@@ 2010
苇 2011
乒 2012
bor@@ 2013
錯 2014
纰 2015
毕 2016
约 2017
夷 2018
窿 2019
覆 2020
the 2021
煦 2022
肏 2023
炝 2024
free 2025
歆 2026
紧 2027
挲 2028
愈 2029
遴 2030
芈 2031
焖 2032
蹙 2033
侯 2034
牒 2035
猎 2036
芍 2037
碗 2038
胗 2039
缫 2040
较 2041
晞 2042
野 2043
嗤 2044
清 2045
苑 2046
蹚 2047
兀 2048
how 2049
芸 2050
寤 2051
霾 2052
宛 2053
螂 2054
谷 2055
寐 2056
匿 2057
ali@@ 2058
菁 2059
骓 2060
念 2061
徭 2062
猬 2063
剧 2064
旺 2065
ven 2066
镣 2067
童 2068
gen@@ 2069
right 2070
铃 2071
ell 2072
見 2073
圆 2074
杞 2075
帝 2076
幽 2077
择 2078
嫡 2079
甬 2080
揩 2081
黜 2082
镏 2083
萼 2084
皆 2085
郊 2086
篁 2087
down@@ 2088
盂 2089
吼 2090
福 2091
duc@@ 2092
趴 2093
呗 2094
唏 2095
ef@@ 2096
鳎 2097
铍 2098
ors 2099
脸 2100
窗 2101
搁 2102
斟 2103
奎 2104
鳃 2105
胰 2106
燕 2107
over 2108
族 2109
半 2110
怠 2111
绵 2112
鹂 2113
饕 2114
some@@ 2115
楔 2116
綪 2117
癫 2118
鑒 2119
焱 2120
踮 2121
gu@@ 2122
晚 2123
吔 2124
诘 2125
颖 2126
蜱 2127
纳 2128
赋 2129
歼 2130
馗 2131
谡 2132
铺 2133
ers 2134
the@@ 2135
衷 2136
萤 2137
腭 2138
喳 2139
炕 2140
ss 2141
哺 2142
麼 2143
忍 2144
車 2145
硬 2146
殍 2147
期 2148
砂 2149
楂 2150
贸 2151
茆 2152
桶 2153
稿 2154
俏 2155
渤 2156
鸹 2157
眨 2158
氏 2159
膝 2160
ily 2161
叵 2162
蟋 2163
妪 2164
隻 2165
篾 2166
蓋 2167
帶 2168
阖 2169
cra@@ 2170
at's 2171
毋 2172
糅 2173
瞰 2174
suc@@ 2175
迪 2176
't 2177
颦 2178
乘 2179
甫 2180
红 2181
阵 2182
wn@@ 2183
芥 2184
戗 2185
萘 2186
跩 2187
禮 2188
受 2189
宴 2190
鉴 2191
褥 2192
吊 2193
杵 2194
割 2195
河 2196
挈 2197
衰 2198
岭 2199
到 2200
聆 2201
盏 2202
附 2203
役 2204
籽 2205
忱 2206
鹰 2207
痼 2208
育 2209
便 2210
硖 2211
肢 2212
戾 2213
聚 2214
页 2215
wh@@ 2216
蛉 2217
臊 2218
鳝 2219
繇 2220
补 2221
听 2222
笃 2223
呙 2224
躺 2225
锥 2226
plic@@ 2227
奢 2228
会 2229
sour@@ 2230
湿 2231
理 2232
团 2233
诅 2234
邪 2235
襦 2236
粹 2237
谒 2238
堵 2239
莨 2240
凌 2241
诽 2242
烈 2243
荡 2244
历 2245
阑 2246
阉 2247
治 2248
铰 2249
书 2250
筒 2251
控 2252
re 2253
卖 2254
full 2255
磅 2256
盎 2257
邃 2258
臻 2259
贾 2260
go 2261
曰 2262
混 2263
emp@@ 2264
肪 2265
under@@ 2266
戊 2267
惜 2268
羔 2269
菇 2270
谥 2271
髦 2272
mis@@ 2273
宥 2274
笸 2275
逦 2276
求 2277
奶 2278
藩 2279
询 2280
online 2281
蝴 2282
锄 2283
鸱 2284
逗 2285
渎 2286
冠 2287
辔 2288
我 2289
祸 2290
捡 2291
柑 2292
consi@@ 2293
dri@@ 2294
sou@@ 2295
绛 2296
ion 2297
another 2298
避 2299
為 2300
胭 2301
蒲 2302
龟 2303
霞 2304
茄 2305
骇 2306
薯 2307
菩 2308
鹩 2309
烁 2310
宏 2311
圭 2312
胤 2313
阗 2314
梯 2315
嚎 2316
so@@ 2317
镳 2318
涉 2319
装 2320
ell@@ 2321
胧 2322
dge 2323
something 2324
琊 2325
陕 2326
仗 2327
芫 2328
wing 2329
佤 2330
穿 2331
忆 2332
岐 2333
牙 2334
熟 2335
栩 2336
鸩 2337
鸢 2338
苍 2339
酂 2340
眙 2341
豫 2342
o 2343
wal@@ 2344
虬 2345
鹚 2346
揭 2347
矮 2348
冥 2349
te@@ 2350
old 2351
医 2352
析 2353
尹 2354
谧 2355
辋 2356
庚 2357
薜 2358
憋 2359
玩 2360
琮 2361
账 2362
悄 2363
屡 2364
迅 2365
秀 2366
哐 2367
链 2368
处 2369
and 2370
铀 2371
sk@@ 2372
雍 2373
▁ 2374
私 2375
油 2376
do@@ 2377
辐 2378
綦 2379
寸 2380
蛙 2381
敬 2382
腱 2383
湘 2384
烦 2385
唿 2386
cer@@ 2387
察 2388
衅 2389
槛 2390
c@@ 2391
疸 2392
震 2393
鬼 2394
镜 2395
幔 2396
鸪 2397
追 2398
devel@@ 2399
虱 2400
鲈 2401
sting 2402
噩 2403
赔 2404
醴 2405
宿 2406
幅 2407
途 2408
他 2409
蔓 2410
谍 2411
札 2412
徽 2413
ye@@ 2414
守 2415
ric@@ 2416
僚 2417
苦 2418
仔 2419
製 2420
炒 2421
屬 2422
爵 2423
际 2424
every@@ 2425
竹 2426
哕 2427
彷 2428
嗞 2429
潢 2430
芾 2431
庞 2432
耳 2433
璞 2434
net 2435
派 2436
铮 2437
瞿 2438
亨 2439
偭 2440
梨 2441
挨 2442
勋 2443
文 2444
及 2445
尧 2446
砣 2447
eas@@ 2448
抛 2449
捎 2450
蜮 2451
坑 2452
辇 2453
孙 2454
缶 2455
厥 2456
潛 2457
咹 2458
烟 2459
sed 2460
狩 2461
ual 2462
gi@@ 2463
乓 2464
佩 2465
鹿 2466
丹 2467
遏 2468
變 2469
特 2470
婳 2471
说 2472
y@@ 2473
酗 2474
婆 2475
笕 2476
掰 2477
nee@@ 2478
ris@@ 2479
崮 2480
cour@@ 2481
汲 2482
翰 2483
夠 2484
艿 2485
抄 2486
希 2487
薇 2488
俗 2489
停 2490
睇 2491
卉 2492
叉 2493
髂 2494
哙 2495
缸 2496
癖 2497
茱 2498
绚 2499
亵 2500
洗 2501
孤 2502
奇 2503
帧 2504
亥 2505
況 2506
钵 2507
簧 2508
四 2509
茭 2510
噢 2511
霎 2512
雌 2513
履 2514
歡 2515
忪 2516
牛 2517
罐 2518
婬 2519
tu@@ 2520
先 2521
责 2522
better 2523
慎 2524
梵 2525
昏 2526
亲 2527
棹 2528
腾 2529
瘴 2530
洄 2531
日 2532
桢 2533
凛 2534
晌 2535
搔 2536
ou@@ 2537
棱 2538
雯 2539
泪 2540
仞 2541
厄 2542
虫 2543
芊 2544
lo@@ 2545
担 2546
垛 2547
嫌 2548
耦 2549
像 2550
碚 2551
移 2552
many 2553
蜚 2554
燎 2555
率 2556
懵 2557
埕 2558
披 2559
讫 2560
聪 2561
剂 2562
娄 2563
翡 2564
磬 2565
手 2566
淝 2567
衫 2568
榜 2569
tr@@ 2570
博 2571
讨 2572
never 2573
娇 2574
荔 2575
俨 2576
阳 2577
撒 2578
圝 2579
朐 2580
浒 2581
新 2582
裟 2583
验 2584
uni@@ 2585
機 2586
故 2587
ble 2588
何 2589
铐 2590
bas@@ 2591
茎 2592
拴 2593
ke 2594
招 2595
咱 2596
骥 2597
耄 2598
版 2599
屙 2600
们 2601
轶 2602
题 2603
放 2604
暨 2605
蹑 2606
咚 2607
嘤 2608
谶 2609
tho@@ 2610
炙 2611
住 2612
聊 2613
贝 2614
哀 2615
刀 2616
踢 2617
仪 2618
醺 2619
衽 2620
棵 2621
皑 2622
楸 2623
拚 2624
much 2625
伏 2626
妍 2627
供 2628
澡 2629
through 2630
廷 2631
荼 2632
because 2633
闼 2634
om 2635
菖 2636
客 2637
忠 2638
炬 2639
宜 2640
吒 2641
ams 2642
铲 2643
砺 2644
赚 2645
慵 2646
糍 2647
价 2648
是 2649
邡 2650
ll 2651
艋 2652
腥 2653
游 2654
赝 2655
览 2656
耀 2657
粼 2658
祟 2659
绘 2660
赦 2661
過 2662
胚 2663
熨 2664
檄 2665
圣 2666
亦 2667
茯 2668
者 2669
标 2670
褶 2671
埋 2672
read 2673
較 2674
port 2675
昕 2676
丸 2677
神 2678
誒 2679
灬 2680
闽 2681
添 2682
珑 2683
試 2684
濉 2685
诋 2686
培 2687
澄 2688
ked 2689
昼 2690
辖 2691
腊 2692
欲 2693
盆 2694
饯 2695
坎 2696
拳 2697
姓 2698
ru@@ 2699
敕 2700
琢 2701
前 2702
嚷 2703
驼 2704
壑 2705
丝 2706
il@@ 2707
book 2708
desig@@ 2709
缰 2710
翌 2711
呸 2712
螳 2713
find 2714
蹩 2715
蓝 2716
冈 2717
cust@@ 2718
啶 2719
路 2720
发 2721
烷 2722
饱 2723
摁 2724
负 2725
首 2726
鹳 2727
幂 2728
哧 2729
吏 2730
拍 2731
腔 2732
侗 2733
every 2734
艮 2735
药 2736
web@@ 2737
秃 2738
腩 2739
苟 2740
蹊 2741
镰 2742
蓄 2743
帕 2744
people 2745
证 2746
涅 2747
瘆 2748
镢 2749
认 2750
蛹 2751
畏 2752
wor@@ 2753
饥 2754
幺 2755
缉 2756
囹 2757
月 2758
挡 2759
酬 2760
佻 2761
艺 2762
名 2763
弘 2764
墩 2765
变 2766
旅 2767
确 2768
倚 2769
帖 2770
睽 2771
闩 2772
im@@ 2773
阀 2774
臀 2775
砀 2776
获 2777
释 2778
have 2779
里 2780
偈 2781
沤 2782
夕 2783
汩 2784
係 2785
yo@@ 2786
露 2787
荞 2788
植 2789
薄 2790
冢 2791
裕 2792
娅 2793
喱 2794
蛭 2795
房 2796
纷 2797
漕 2798
攉 2799
表 2800
挥 2801
祭 2802
当 2803
娜 2804
删 2805
趾 2806
蜻 2807
馓 2808
儒 2809
離 2810
香 2811
孜 2812
tec@@ 2813
挚 2814
杠 2815
伎 2816
der@@ 2817
dom@@ 2818
妁 2819
ect 2820
崴 2821
很 2822
妞 2823
電 2824
绎 2825
罃 2826
加 2827
兵 2828
跚 2829
ies 2830
ing@@ 2831
轉 2832
渚 2833
螈 2834
麦 2835
咙 2836
鹅 2837
窒 2838
毽 2839
訴 2840
扩 2841
喷 2842
晁 2843
劈 2844
锦 2845
累 2846
遛 2847
狒 2848
king 2849
竣 2850
咬 2851
岿 2852
疝 2853
高 2854
榭 2855
曾 2856
肮 2857
茉 2858
陟 2859
gh 2860
糊 2861
羲 2862
错 2863
嘬 2864
拽 2865
ak 2866
钴 2867
宾 2868
儆 2869
骏 2870
鸿 2871
背 2872
懦 2873
ass 2874
ast 2875
褐 2876
晋 2877
sa@@ 2878
焠 2879
庸 2880
剁 2881
纾 2882
纭 2883
雎 2884
馬 2885
an@@ 2886
莼 2887
系 2888
愕 2889
業 2890
偕 2891
则 2892
趁 2893
诌 2894
妯 2895
匍 2896
su@@ 2897
道 2898
渴 2899
哚 2900
蔫 2901
仕 2902
娲 2903
彊 2904
匣 2905
瓿 2906
簋 2907
掤 2908
gener@@ 2909
灣 2910
橡 2911
骸 2912
芡 2913
eff@@ 2914
让 2915
園 2916
ful 2917
判 2918
暗 2919
扦 2920
vel 2921
姨 2922
斡 2923
蛮 2924
霸 2925
至 2926
fe 2927
逻 2928
即 2929
dre@@ 2930
three 2931
穹 2932
佶 2933
昨 2934
总 2935
尚 2936
盲 2937
頫 2938
寶 2939
瞎 2940
撅 2941
辚 2942
桩 2943
gh@@ 2944
骡 2945
sure 2946
囤 2947
僧 2948
诡 2949
箜 2950
苣 2951
ous 2952
紀 2953
銮 2954
嬉 2955
槌 2956
並 2957
火 2958
哭 2959
tre@@ 2960
again 2961
肄 2962
酞 2963
鎏 2964
令 2965
礼 2966
橙 2967
涸 2968
珠 2969
搬 2970
忤 2971
呕 2972
亟 2973
种 2974
糗 2975
谝 2976
two 2977
韭 2978
唠 2979
萬 2980
杷 2981
乱 2982
淖 2983
织 2984
跪 2985
int 2986
敷 2987
波 2988
一 2989
little 2990
店 2991
缥 2992
敞 2993
逡 2994
衔 2995
ould 2996
固 2997
any 2998
詞 2999
稽 3000
对 3001
锆 3002
薏 3003
嘹 3004
佚 3005
炅 3006
填 3007
contro@@ 3008
梳 3009
妓 3010
戲 3011
認 3012
怨 3013
柬 3014
通 3015
漓 3016
whe@@ 3017
莎 3018
戒 3019
锣 3020
裙 3021
锟 3022
境 3023
卺 3024
錒 3025
钞 3026
囡 3027
饨 3028
記 3029
雄 3030
逆 3031
壬 3032
骈 3033
曙 3034
卞 3035
芘 3036
唇 3037
泰 3038
邱 3039
h@@ 3040
栓 3041
栋 3042
any@@ 3043
孰 3044
妹 3045
盗 3046
儋 3047
且 3048
浮 3049
靼 3050
轧 3051
姹 3052
與 3053
脂 3054
cor@@ 3055
商 3056
busin@@ 3057
舅 3058
稠 3059
圈 3060
my 3061
踅 3062
悔 3063
昊 3064
wa@@ 3065
沝 3066
驳 3067
隊 3068
戌 3069
去 3070
束 3071
桉 3072
f 3073
呐 3074
呆 3075
刊 3076
蚯 3077
拦 3078
ence 3079
鳕 3080
拼 3081
鲅 3082
髡 3083
汉 3084
雹 3085
蒽 3086
民 3087
顷 3088
改 3089
坊 3090
唻 3091
授 3092
俘 3093
挤 3094
sup@@ 3095
姬 3096
曈 3097
螓 3098
services 3099
掬 3100
堅 3101
cur@@ 3102
找 3103
睁 3104
寥 3105
鱼 3106
速 3107
啃 3108
using 3109
嘣 3110
南 3111
寡 3112
隨 3113
郎 3114
藿 3115
搏 3116
伪 3117
劣 3118
全 3119
琅 3120
涡 3121
驗 3122
那 3123
珙 3124
坷 3125
黃 3126
腺 3127
箸 3128
人 3129
卒 3130
衮 3131
副 3132
痘 3133
怎 3134
鞍 3135
魈 3136
螺 3137
bre@@ 3138
靛 3139
婉 3140
蝠 3141
耒 3142
悦 3143
应 3144
弯 3145
更 3146
蚂 3147
瞽 3148
抽 3149
晶 3150
骑 3151
娉 3152
枫 3153
pu@@ 3154
w 3155
尉 3156
尬 3157
熙 3158
钳 3159
had 3160
吸 3161
存 3162
嵋 3163
蹦 3164
丽 3165
忝 3166
逼 3167
垮 3168
粕 3169
急 3170
埠 3171
撰 3172
墓 3173
琬 3174
龌 3175
網 3176
涑 3177
睑 3178
榉 3179
俄 3180
篦 3181
钯 3182
捧 3183
裴 3184
荪 3185
最 3186
qu@@ 3187
its 3188
pla@@ 3189
献 3190
殷 3191
俺 3192
钡 3193
歌 3194
飞 3195
仵 3196
膻 3197
泫 3198
矽 3199
撷 3200
啦 3201
资 3202
卦 3203
殺 3204
暂 3205
拾 3206
皿 3207
噻 3208
亳 3209
崧 3210
瞑 3211
闻 3212
稹 3213
義 3214
扁 3215
鳅 3216
連 3217
po@@ 3218
胥 3219
es 3220
锏 3221
son@@ 3222
city 3223
龋 3224
條 3225
嘶 3226
局 3227
蚪 3228
ade 3229
损 3230
獭 3231
鲫 3232
涠 3233
班 3234
忾 3235
穆 3236
空 3237
涨 3238
where 3239
燊 3240
槽 3241
凭 3242
颚 3243
伶 3244
剿 3245
del@@ 3246
华 3247
泡 3248
整 3249
裂 3250
contin@@ 3251
葑 3252
蠹 3253
右 3254
翁 3255
鼬 3256
恙 3257
宽 3258
街 3259
兄 3260
垄 3261
may 3262
学 3263
窥 3264
ations 3265
咝 3266
尔 3267
喋 3268
嚒 3269
該 3270
惆 3271
燧 3272
int@@ 3273
嗪 3274
服 3275
咖 3276
疖 3277
摇 3278
蓉 3279
帅 3280
终 3281
效 3282
tor 3283
凯 3284
驸 3285
肓 3286
省 3287
硫 3288
隽 3289
辜 3290
蟥 3291
具 3292
唔 3293
纥 3294
ket 3295
险 3296
傣 3297
讧 3298
覃 3299
炸 3300
铡 3301
覺 3302
职 3303
深 3304
tor@@ 3305
鞣 3306
呦 3307
惭 3308
典 3309
審 3310
镀 3311
瘙 3312
多 3313
杉 3314
解 3315
dy 3316
v@@ 3317
囱 3318
棺 3319
啂 3320
怔 3321
兜 3322
倌 3323
石 3324
彪 3325
膀 3326
印 3327
肩 3328
而 3329
峰 3330
谤 3331
节 3332
霏 3333
彻 3334
嗥 3335
ture 3336
咐 3337
董 3338
恽 3339
滤 3340
瘁 3341
fam@@ 3342
愣 3343
next 3344
笛 3345
昭 3346
伟 3347
樵 3348
強 3349
恤 3350
瑟 3351
嫦 3352
嗲 3353
ary 3354
貂 3355
堰 3356
腑 3357
爻 3358
声 3359
瑞 3360
迈 3361
细 3362
乎 3363
钎 3364
罄 3365
翻 3366
掌 3367
湄 3368
苴 3369
ard 3370
挠 3371
皇 3372
習 3373
竺 3374
竞 3375
怙 3376
郇 3377
备 3378
辄 3379
厝 3380
販 3381
person@@ 3382
榆 3383
衍 3384
牯 3385
陀 3386
奚 3387
糖 3388
揣 3389
妫 3390
岁 3391
骶 3392
呒 3393
荏 3394
蜘 3395
俊 3396
鲟 3397
缆 3398
匾 3399
妗 3400
捉 3401
朕 3402
凇 3403
須 3404
胆 3405
虚 3406
珮 3407
长 3408
滁 3409
锰 3410
李 3411
螭 3412
鼻 3413
得 3414
廪 3415
瓜 3416
潺 3417
with 3418
忑 3419
郃 3420
葡 3421
員 3422
戍 3423
助 3424
断 3425
ats 3426
篷 3427
央 3428
横 3429
狗 3430
情 3431
甑 3432
provi@@ 3433
铣 3434
咔 3435
瑛 3436
敌 3437
瘀 3438
芳 3439
击 3440
吝 3441
美 3442
隶 3443
亚 3444
顼 3445
重 3446
煮 3447
铸 3448
酱 3449
囍 3450
灼 3451
繼 3452
耽 3453
痍 3454
腹 3455
俩 3456
屿 3457
復 3458
死 3459
郯 3460
镶 3461
貼 3462
云 3463
宁 3464
fr@@ 3465
森 3466
蒂 3467
犬 3468
鳍 3469
獐 3470
蜂 3471
痦 3472
魉 3473
郜 3474
淋 3475
涝 3476
sha@@ 3477
氰 3478
終 3479
迳 3480
fir@@ 3481
篪 3482
ings 3483
擺 3484
ir 3485
钏 3486
鞘 3487
甭 3488
捆 3489
秧 3490
翦 3491
咋 3492
恐 3493
乜 3494
捋 3495
錾 3496
冰 3497
time 3498
亘 3499
蕤 3500
stra@@ 3501
癣 3502
produc@@ 3503
ther 3504
high 3505
散 3506
娠 3507
撇 3508
干 3509
斛 3510
瞳 3511
抑 3512
藕 3513
斑 3514
叱 3515
善 3516
太 3517
殇 3518
活 3519
ob@@ 3520
巅 3521
企 3522
跑 3523
殊 3524
芦 3525
丕 3526
锲 3527
宣 3528
饺 3529
倩 3530
糜 3531
硒 3532
輪 3533
扰 3534
攀 3535
猷 3536
形 3537
most 3538
苓 3539
秒 3540
溺 3541
仇 3542
闯 3543
症 3544
怆 3545
芎 3546
val@@ 3547
荻 3548
惰 3549
信 3550
馐 3551
蹿 3552
仓 3553
單 3554
撮 3555
從 3556
食 3557
扔 3558
档 3559
襟 3560
呃 3561
登 3562
买 3563
斷 3564
ing 3565
疤 3566
绞 3567
缅 3568
佥 3569
译 3570
鐘 3571
黩 3572
园 3573
锵 3574
嫁 3575
呼 3576
盟 3577
栲 3578
討 3579
菡 3580
峭 3581
过 3582
黝 3583
夸 3584
嬬 3585
溧 3586
長 3587
区 3588
汰 3589
贞 3590
荜 3591
矍 3592
厅 3593
粳 3594
伙 3595
顯 3596
凄 3597
贬 3598
颂 3599
稣 3600
递 3601
澈 3602
si@@ 3603
exp@@ 3604
雙 3605
颔 3606
from 3607
沮 3608
俯 3609
驻 3610
渠 3611
蒺 3612
锉 3613
咄 3614
瞪 3615
囗 3616
say 3617
睹 3618
蟠 3619
银 3620
遵 3621
which 3622
佗 3623
system 3624
牡 3625
蕨 3626
糯 3627
盐 3628
錢 3629
ged 3630
鞋 3631
贤 3632
犯 3633
ili@@ 3634
纯 3635
瞒 3636
fil@@ 3637
照 3638
ant@@ 3639
杂 3640
藜 3641
偌 3642
禁 3643
喀 3644
蜥 3645
麹 3646
瑶 3647
了 3648
ick 3649
掣 3650
無 3651
赴 3652
peri@@ 3653
缨 3654
掸 3655
沐 3656
缪 3657
wi@@ 3658
瘸 3659
需 3660
诈 3661
倭 3662
骢 3663
绑 3664
捭 3665
觎 3666
水 3667
苯 3668
據 3669
叙 3670
浃 3671
钊 3672
fic@@ 3673
樗 3674
汁 3675
泛 3676
摆 3677
赘 3678
vis@@ 3679
港 3680
nex@@ 3681
ices 3682
敛 3683
洛 3684
啧 3685
码 3686
彧 3687
旨 3688
五 3689
then 3690
觊 3691
棚 3692
娼 3693
保 3694
ely 3695
蠢 3696
条 3697
i'@@ 3698
琵 3699
茁 3700
垠 3701
与 3702
缇 3703
fo@@ 3704
惴 3705
纠 3706
该 3707
莓 3708
勖 3709
腦 3710
戈 3711
浠 3712
岗 3713
酒 3714
糟 3715
祎 3716
讦 3717
趕 3718
gr@@ 3719
仑 3720
both 3721
喂 3722
斐 3723
熹 3724
湟 3725
汆 3726
姿 3727
妙 3728
盒 3729
恩 3730
走 3731
蝎 3732
傅 3733
k 3734
堇 3735
闹 3736
been 3737
萨 3738
俟 3739
ame 3740
堆 3741
蛛 3742
庐 3743
play@@ 3744
诮 3745
宮 3746
秫 3747
青 3748
歙 3749
龅 3750
盼 3751
驭 3752
殓 3753
匪 3754
ite 3755
蛇 3756
辦 3757
推 3758
钟 3759
晾 3760
攻 3761
蓿 3762
湾 3763
葵 3764
鹫 3765
war@@ 3766
蘅 3767
tion@@ 3768
摩 3769
藏 3770
宝 3771
溃 3772
蔗 3773
愤 3774
褡 3775
符 3776
嗒 3777
睾 3778
酥 3779
喝 3780
网 3781
誊 3782
汊 3783
勾 3784
赵 3785
净 3786
who 3787
亻 3788
呶 3789
弑 3790
嗔 3791
瞧 3792
瞄 3793
谁 3794
看 3795
茅 3796
浣 3797
翩 3798
琼 3799
虐 3800
鳜 3801
虞 3802
泸 3803
氓 3804
蠡 3805
碾 3806
畜 3807
嘎 3808
侥 3809
擂 3810
焚 3811
融 3812
雖 3813
菜 3814
忸 3815
奴 3816
tic 3817
纫 3818
嫚 3819
嗫 3820
ther@@ 3821
维 3822
榎 3823
炖 3824
national 3825
涼 3826
筆 3827
男 3828
ves 3829
ics 3830
啥 3831
雜 3832
耍 3833
they 3834
爛 3835
蜒 3836
當 3837
胜 3838
amer@@ 3839
跆 3840
抓 3841
碳 3842
殆 3843
句 3844
髻 3845
燥 3846
出 3847
初 3848
蛀 3849
诺 3850
爭 3851
off 3852
fl@@ 3853
set 3854
soci@@ 3855
樾 3856
颈 3857
but 3858
潸 3859
邸 3860
餐 3861
徊 3862
煲 3863
钗 3864
浸 3865
垅 3866
ments 3867
妩 3868
绥 3869
睥 3870
刹 3871
栾 3872
耐 3873
输 3874
造 3875
牦 3876
des@@ 3877
磺 3878
傷 3879
辘 3880
top 3881
洒 3882
苎 3883
芜 3884
实 3885
沱 3886
拓 3887
疹 3888
嬲 3889
务 3890
疏 3891
廚 3892
芭 3893
times 3894
钓 3895
樽 3896
鄯 3897
久 3898
犴 3899
v 3900
肇 3901
ph@@ 3902
茛 3903
并 3904
醐 3905
蒡 3906
璐 3907
ens 3908
彰 3909
窖 3910
lot 3911
沉 3912
ig@@ 3913
娟 3914
绶 3915
享 3916
us@@ 3917
坞 3918
al@@ 3919
憔 3920
渺 3921
侦 3922
展 3923
ar@@ 3924
涿 3925
撼 3926
拣 3927
敖 3928
ate@@ 3929
痹 3930
乃 3931
參 3932
氤 3933
fol@@ 3934
on 3935
届 3936
cam@@ 3937
蚣 3938
吡 3939
氪 3940
曝 3941
ven@@ 3942
dr@@ 3943
堞 3944
睫 3945
粟 3946
互 3947
猜 3948
粝 3949
氮 3950
沾 3951
tic@@ 3952
踞 3953
溉 3954
芹 3955
wr@@ 3956
蒹 3957
堤 3958
嵌 3959
浏 3960
酸 3961
r@@ 3962
妳 3963
鸷 3964
指 3965
將 3966
臧 3967
捞 3968
long 3969
封 3970
妇 3971
瑜 3972
們 3973
忏 3974
靳 3975
诏 3976
喇 3977
独 3978
vel@@ 3979
袋 3980
hou@@ 3981
殚 3982
板 3983
倦 3984
ility 3985
既 3986
stre@@ 3987
類 3988
ate 3989
wee@@ 3990
茕 3991
溘 3992
嫱 3993
粱 3994
徐 3995
楚 3996
钥 3997
堡 3998
疲 3999
狂 4000
腿 4001
嗐 4002
me 4003
卢 4004
蒌 4005
钛 4006
法 4007
劫 4008
雁 4009
叭 4010
ste@@ 4011
亓 4012
ong 4013
椅 4014
窯 4015
獠 4016
護 4017
恃 4018
脘 4019
纣 4020
濯 4021
罅 4022
酆 4023
污 4024
籁 4025
圖 4026
m@@ 4027
媚 4028
蕲 4029
儿 4030
數 4031
性 4032
裁 4033
怅 4034
嘧 4035
铨 4036
塬 4037
蔬 4038
剩 4039
雲 4040
侬 4041
施 4042
憾 4043
胀 4044
埗 4045
稼 4046
垒 4047
珩 4048
皙 4049
臭 4050
陲 4051
less 4052
读 4053
猪 4054
礴 4055
bri@@ 4056
扈 4057
布 4058
鼋 4059
婢 4060
捂 4061
災 4062
炔 4063
桨 4064
樯 4065
碱 4066
遠 4067
隆 4068
怄 4069
tw@@ 4070
con@@ 4071
双 4072
孝 4073
happ@@ 4074
纂 4075
home 4076
茫 4077
蝾 4078
拎 4079
sch@@ 4080
other 4081
戏 4082
颗 4083
兩 4084
抒 4085
痫 4086
嚓 4087
崃 4088
鞯 4089
惯 4090
元 4091
篑 4092
撞 4093
猫 4094
索 4095
or@@ 4096
谕 4097
围 4098
悌 4099
刚 4100
亢 4101
ch 4102
歃 4103
行 4104
sit@@ 4105
祷 4106
澍 4107
扇 4108
簽 4109
丁 4110
绕 4111
吖 4112
岌 4113
伸 4114
贱 4115
祥 4116
ar 4117
暑 4118
革 4119
钺 4120
犼 4121
環 4122
卵 4123
口 4124
柘 4125
層 4126
箴 4127
楣 4128
吹 4129
镑 4130
粗 4131
蚬 4132
膑 4133
his 4134
蝙 4135
堕 4136
匐 4137
轱 4138
钼 4139
桂 4140
en 4141
娥 4142
铪 4143
攥 4144
逞 4145
por@@ 4146
年 4147
種 4148
阆 4149
芬 4150
men@@ 4151
蓑 4152
鹦 4153
蚤 4154
low@@ 4155
ding 4156
禹 4157
入 4158
连 4159
築 4160
糙 4161
啄 4162
tions 4163
up 4164
hi@@ 4165
鳟 4166
邯 4167
with@@ 4168
刺 4169
均 4170
鹈 4171
辟 4172
嘢 4173
笤 4174
楫 4175
怜 4176
残 4177
甥 4178
陵 4179
荟 4180
募 4181
豌 4182
劝 4183
婕 4184
义 4185
厮 4186
悉 4187
泮 4188
af@@ 4189
躅 4190
曲 4191
璜 4192
锋 4193
绒 4194
疑 4195
炊 4196
缚 4197
貨 4198
猖 4199
鄂 4200
罢 4201
聩 4202
欣 4203
规 4204
酚 4205
stem 4206
垃 4207
忿 4208
嫘 4209
雾 4210
恍 4211
瘾 4212
瞠 4213
es@@ 4214
耻 4215
問 4216
don't 4217
mat@@ 4218
玲 4219
悸 4220
显 4221
帮 4222
薅 4223
帆 4224
铜 4225
渡 4226
瑁 4227
揖 4228
厦 4229
癔 4230
啻 4231
帼 4232
矛 4233
暹 4234
抉 4235
陸 4236
谅 4237
锯 4238
柴 4239
繁 4240
調 4241
弟 4242
睛 4243
爽 4244
make 4245
羡 4246
in@@ 4247
沔 4248
搭 4249
圍 4250
嗷 4251
le@@ 4252
榛 4253
黎 4254
動 4255
挞 4256
馁 4257
啖 4258
龚 4259
mon@@ 4260
箩 4261
或 4262
谔 4263
end 4264
掇 4265
陇 4266
组 4267
庾 4268
攫 4269
诉 4270
龛 4271
讲 4272
棣 4273
聽 4274
槟 4275
其 4276
sear@@ 4277
鸟 4278
揄 4279
卿 4280
栱 4281
鳄 4282
滔 4283
抻 4284
c 4285
皱 4286
秘 4287
庶 4288
莜 4289
wit@@ 4290
郦 4291
倡 4292
莞 4293
葭 4294
烊 4295
诫 4296
買 4297
锁 4298
稚 4299
么 4300
枝 4301
am@@ 4302
宙 4303
然 4304
炎 4305
湮 4306
迹 4307
怩 4308
袖 4309
補 4310
gre@@ 4311
甾 4312
魔 4313
吓 4314
抠 4315
珂 4316
才 4317
阂 4318
憩 4319
缀 4320
car@@ 4321
館 4322
咵 4323
忙 4324
谭 4325
绿 4326
甜 4327
雪 4328
庵 4329
蛎 4330
篌 4331
狼 4332
裘 4333
ure 4334
la@@ 4335
宸 4336
logy 4337
葫 4338
若 4339
串 4340
夔 4341
抡 4342
wil@@ 4343
珈 4344
舍 4345
馋 4346
盈 4347
勐 4348
铳 4349
沂 4350
疵 4351
又 4352
井 4353
趟 4354
凹 4355
ken 4356
獴 4357
纵 4358
沽 4359
骆 4360
煊 4361
酋 4362
骨 4363
闷 4364
籍 4365
戶 4366
鹉 4367
颇 4368
跺 4369
裝 4370
讥 4371
傲 4372
阡 4373
悚 4374
荸 4375
she 4376
stu@@ 4377
哞 4378
浴 4379
' 4380
购 4381
据 4382
修 4383
悴 4384
骧 4385
羽 4386
t 4387
臼 4388
染 4389
婺 4390
嵛 4391
go@@ 4392
插 4393
丟 4394
des 4395
玦 4396
左 4397
邹 4398
it 4399
假 4400
煸 4401
sm@@ 4402
鲮 4403
蔑 4404
栉 4405
阶 4406
pp@@ 4407
嘛 4408
糸 4409
谣 4410
垭 4411
瞬 4412
恼 4413
旦 4414
渐 4415
荤 4416
疯 4417
忘 4418
真 4419
瑭 4420
荐 4421
p 4422
镛 4423
烤 4424
勿 4425
仄 4426
压 4427
屋 4428
杜 4429
帷 4430
應 4431
虹 4432
腮 4433
锨 4434
豁 4435
扭 4436
魍 4437
對 4438
梦 4439
佛 4440
熊 4441
茴 4442
bu@@ 4443
兼 4444
ity 4445
杏 4446
桷 4447
薛 4448
哗 4449
捺 4450
愿 4451
熔 4452
眶 4453
氖 4454
缴 4455
ts 4456
秣 4457
矢 4458
夹 4459
kin@@ 4460
藉 4461
灏 4462
鳖 4463
烬 4464
钢 4465
旎 4466
朔 4467
宰 4468
sim@@ 4469
comm@@ 4470
遇 4471
蒯 4472
琛 4473
嗽 4474
鸳 4475
sum@@ 4476
恢 4477
炯 4478
枭 4479
鬻 4480
砌 4481
涣 4482
謝 4483
work 4484
滚 4485
迦 4486
倏 4487
囿 4488
寺 4489
別 4490
ry 4491
七 4492
绷 4493
贡 4494
珹 4495
ical 4496
音 4497
士 4498
爆 4499
脯 4500
擦 4501
扶 4502
硕 4503
泾 4504
倮 4505
德 4506
挟 4507
痱 4508
mi@@ 4509
惕 4510
迭 4511
祢 4512
咿 4513
骜 4514
熄 4515
呤 4516
函 4517
good 4518
痨 4519
耿 4520
罴 4521
叻 4522
溴 4523
良 4524
嗜 4525
曼 4526
痔 4527
块 4528
办 4529
pre@@ 4530
葆 4531
髋 4532
臃 4533
屏 4534
o@@ 4535
摒 4536
ec@@ 4537
羹 4538
did 4539
got 4540
餮 4541
旧 4542
钿 4543
淡 4544
棘 4545
涔 4546
ks 4547
昵 4548
莒 4549
墙 4550
万 4551
聲 4552
虾 4553
謂 4554
於 4555
畀 4556
che@@ 4557
嗟 4558
頓 4559
踱 4560
斥 4561
el@@ 4562
尿 4563
滞 4564
稻 4565
谨 4566
藻 4567
佝 4568
裳 4569
磁 4570
妮 4571
鸮 4572
喊 4573
鬓 4574
擀 4575
蜷 4576
蔺 4577
water 4578
棒 4579
榄 4580
ser@@ 4581
琰 4582
蛊 4583
剃 4584
酉 4585
啬 4586
梆 4587
侠 4588
押 4589
狜 4590
秆 4591
忐 4592
钰 4593
clu@@ 4594
ous@@ 4595
蚨 4596
ner 4597
淞 4598
for 4599
谯 4600
侘 4601
栎 4602
徕 4603
ness 4604
扑 4605
祗 4606
父 4607
盾 4608
伧 4609
灞 4610
赳 4611
瘟 4612
绯 4613
place 4614
隅 4615
檫 4616
逑 4617
键 4618
擢 4619
邂 4620
were 4621
磷 4622
臂 4623
镉 4624
上 4625
姘 4626
佳 4627
材 4628
ses 4629
闭 4630
滩 4631
锭 4632
龍 4633
窍 4634
似 4635
噶 4636
養 4637
跻 4638
碎 4639
al 4640
痒 4641
gro@@ 4642
鳌 4643
還 4644
lic 4645
噙 4646
迤 4647
惦 4648
靖 4649
影 4650
comp@@ 4651
田 4652
粲 4653
绐 4654
cu@@ 4655
胖 4656
菊 4657
胃 4658
甩 4659
诊 4660
素 4661
潲 4662
dat@@ 4663
碌 4664
见 4665
浔 4666
姥 4667
this 4668
侄 4669
掼 4670
ques@@ 4671
慕 4672
箔 4673
柠 4674
拔 4675
adv@@ 4676
哩 4677
love 4678
稍 4679
gir@@ 4680
箍 4681
容 4682
膏 4683
毁 4684
柿 4685
嬃 4686
例 4687
完 4688
刷 4689
胴 4690
ames 4691
烽 4692
気 4693
嘈 4694
锤 4695
枷 4696
舸 4697
乐 4698
辰 4699
don@@ 4700
毒 4701
舉 4702
ded 4703
diffe@@ 4704
六 4705
霄 4706
indi@@ 4707
武 4708
送 4709
尕 4710
坐 4711
稞 4712
定 4713
怼 4714
市 4715
溱 4716
懊 4717
诣 4718
喻 4719
筚 4720
湫 4721
瑚 4722
part 4723
站 4724
赞 4725
渑 4726
望 4727
菟 4728
申 4729
识 4730
sin@@ 4731
铆 4732
朴 4733
玺 4734
萁 4735
冗 4736
皲 4737
boo@@ 4738
焰 4739
为 4740
订 4741
妨 4742
mus@@ 4743
舷 4744
擎 4745
昧 4746
摊 4747
靠 4748
菠 4749
篆 4750
胞 4751
薪 4752
灾 4753
萱 4754
錶 4755
陂 4756
皓 4757
起 4758
lit@@ 4759
奖 4760
薰 4761
脑 4762
沃 4763
珲 4764
拭 4765
news 4766
诰 4767
作 4768
要 4769
群 4770
绾 4771
咣 4772
渔 4773
笄 4774
岬 4775
衢 4776
少 4777
所 4778
辱 4779
碧 4780
误 4781
峋 4782
胸 4783
煽 4784
cle@@ 4785
誰 4786
芋 4787
ft 4788
僮 4789
擁 4790
陛 4791
惋 4792
偃 4793
忖 4794
败 4795
严 4796
薆 4797
熠 4798
烀 4799
prof@@ 4800
撵 4801
丰 4802
除 4803
om@@ 4804
洵 4805
邙 4806
證 4807
粪 4808
黏 4809
doc@@ 4810
脊 4811
频 4812
續 4813
黛 4814
诩 4815
劇 4816
掐 4817
姚 4818
叨 4819
积 4820
聒 4821
珉 4822
橱 4823
嫖 4824
sub@@ 4825
鲁 4826
ps 4827
to@@ 4828
叫 4829
dn't 4830
松 4831
碴 4832
唎 4833
識 4834
纱 4835
sig@@ 4836
络 4837
醒 4838
醚 4839
avail@@ 4840
壤 4841
揠 4842
椒 4843
剔 4844
诞 4845
it@@ 4846
臆 4847
烂 4848
弩 4849
tive 4850
命 4851
蓓 4852
兴 4853
透 4854
相 4855
啊 4856
tion 4857
溜 4858
跬 4859
雅 4860
业 4861
模 4862
拌 4863
郧 4864
乔 4865
眦 4866
矬 4867
颏 4868
恭 4869
达 4870
今 4871
bo@@ 4872
振 4873
尸 4874
et 4875
酩 4876
舂 4877
劳 4878
蛰 4879
蟾 4880
桄 4881
芶 4882
幌 4883
哨 4884
侩 4885
淌 4886
茶 4887
service 4888
事 4889
弼 4890
彭 4891
made 4892
球 4893
淇 4894
e 4895
赶 4896
您 4897
缗 4898
笈 4899
宇 4900
幫 4901
瓴 4902
鲳 4903
鲎 4904
酡 4905
looking 4906
吟 4907
髌 4908
脆 4909
ack@@ 4910
vie@@ 4911
哈 4912
岘 4913
魏 4914
荚 4915
s@@ 4916
戚 4917
线 4918
舞 4919
沌 4920
嗬 4921
亮 4922
哝 4923
北 4924
囟 4925
瑄 4926
ust 4927
晗 4928
虻 4929
潦 4930
珍 4931
低 4932
铤 4933
层 4934
寝 4935
玟 4936
鱤 4937
ways 4938
眠 4939
吐 4940
软 4941
ach@@ 4942
问 4943
师 4944
笙 4945
n@@ 4946
饷 4947
惇 4948
蝗 4949
years 4950
请 4951
inclu@@ 4952
唢 4953
舢 4954
務 4955
h 4956
斧 4957
共 4958
琚 4959
anc@@ 4960
場 4961
镖 4962
屹 4963
窸 4964
us 4965
岑 4966
皴 4967
锐 4968
痉 4969
渍 4970
嗨 4971
诗 4972
考 4973
汴 4974
旮 4975
踉 4976
訾 4977
團 4978
瑨 4979
oun@@ 4980
愠 4981
社 4982
糌 4983
牌 4984
锻 4985
over@@ 4986
已 4987
彩 4988
ren@@ 4989
鄞 4990
鲶 4991
always 4992
愛 4993
诀 4994
漂 4995
肘 4996
樓 4997
腳 4998
二 4999
粑 5000
绣 5001
舺 5002
猞 5003
writ@@ 5004
腚 5005
苁 5006
持 5007
睦 5008
唱 5009
庆 5010
爪 5011
恫 5012
伯 5013
霖 5014
墟 5015
邛 5016
抖 5017
嬢 5018
呯 5019
倔 5020
圩 5021
拱 5022
旁 5023
lar 5024
目 5025
崂 5026
妾 5027
诛 5028
每 5029
世 5030
啰 5031
皂 5032
矣 5033
沓 5034
联 5035
婪 5036
啕 5037
竭 5038
衡 5039
黠 5040
張 5041
骁 5042
妤 5043
溫 5044
柳 5045
西 5046
one 5047
鸬 5048
闪 5049
包 5050
國 5051
寄 5052
迟 5053
早 5054
砖 5055
佃 5056
虑 5057
禅 5058
菘 5059
鳏 5060
待 5061
戴 5062
捣 5063
徘 5064
ed@@ 5065
ve 5066
窟 5067
able 5068
奵 5069
苡 5070
嫩 5071
篡 5072
娴 5073
罹 5074
徒 5075
樹 5076
泉 5077
巽 5078
腻 5079
榕 5080
臉 5081
葬 5082
ten 5083
棉 5084
can 5085
钮 5086
爰 5087
诨 5088
溅 5089
免 5090
昔 5091
of 5092
非 5093
潇 5094
枯 5095
佬 5096
挣 5097
regi@@ 5098
齐 5099
捅 5100
袍 5101
vide@@ 5102
鼎 5103
氩 5104
饵 5105
赛 5106
new 5107
was 5108
篼 5109
凸 5110
year 5111
坝 5112
帜 5113
淙 5114
益 5115
stan@@ 5116
氲 5117
吞 5118
極 5119
ship 5120
乙 5121
ial 5122
镪 5123
衙 5124
锷 5125
颌 5126
滇 5127
cre@@ 5128
金 5129
啤 5130
邈 5131
漏 5132
ages 5133
但 5134
龈 5135
于 5136
廉 5137
绢 5138
烛 5139
弥 5140
奂 5141
养 5142
竿 5143
只 5144
胱 5145
栽 5146
橼 5147
朦 5148
gar@@ 5149
访 5150
題 5151
帻 5152
an 5153
莅 5154
顏 5155
夢 5156
富 5157
纶 5158
货 5159
犊 5160
款 5161
佞 5162
u 5163
讷 5164
促 5165
欻 5166
son 5167
荀 5168
瓣 5169
荨 5170
嗣 5171
great 5172
抵 5173
钧 5174
眸 5175
悻 5176
泯 5177
ween 5178
殡 5179
喈 5180
姒 5181
脓 5182
tt@@ 5183
璧 5184
囫 5185
驿 5186
蛱 5187
want 5188
吉 5189
员 5190
di@@ 5191
颉 5192
fore 5193
笏 5194
慷 5195
的 5196
蘑 5197
bus@@ 5198
哌 5199
邴 5200
氅 5201
inter@@ 5202
槁 5203
卷 5204
镐 5205
埽 5206
屯 5207
依 5208
氧 5209
囵 5210
篝 5211
锚 5212
打 5213
榷 5214
漖 5215
孀 5216
戛 5217
q 5218
替 5219
齁 5220
匆 5221
颊 5222
爬 5223
浐 5224
礁 5225
der 5226
欸 5227
know 5228
抨 5229
瓮 5230
崆 5231
汤 5232
桅 5233
毯 5234
coll@@ 5235
帽 5236
歇 5237
吁 5238
玻 5239
姜 5240
疗 5241
品 5242
ment 5243
炷 5244
复 5245
寨 5246
醅 5247
僵 5248
汾 5249
卓 5250
ality 5251
谩 5252
谙 5253
奋 5254
豉 5255
缳 5256
屉 5257
曛 5258
颁 5259
咭 5260
矩 5261
thing 5262
逃 5263
晰 5264
川 5265
號 5266
芯 5267
蜀 5268
魑 5269
府 5270
贼 5271
萎 5272
憬 5273
i'm 5274
烹 5275
叁 5276
阄 5277
飘 5278
炆 5279
某 5280
段 5281
ess@@ 5282
各 5283
贮 5284
唾 5285
such 5286
糕 5287
get 5288
丧 5289
议 5290
tra@@ 5291
學 5292
婵 5293
跤 5294
甙 5295
嘭 5296
堀 5297
莉 5298
嗯 5299
春 5300
臬 5301
k@@ 5302
think 5303
屁 5304
庖 5305
ha@@ 5306
as@@ 5307
屎 5308
矿 5309
栖 5310
逢 5311
fro@@ 5312
ject 5313
撸 5314
沙 5315
毫 5316
爹 5317
room 5318
悯 5319
剥 5320
琶 5321
ought 5322
夙 5323
昱 5324
ise 5325
菅 5326
基 5327
are 5328
椎 5329
接 5330
癀 5331
專 5332
勉 5333
點 5334
往 5335
恶 5336
蝉 5337
秋 5338
崎 5339
异 5340
骐 5341
sal@@ 5342
瓒 5343
褪 5344
嘉 5345
垓 5346
芃 5347
嘴 5348
锒 5349
f@@ 5350
vo@@ 5351
巡 5352
象 5353
须 5354
驯 5355
鴉 5356
电 5357
玄 5358
j 5359
ke@@ 5360
埂 5361
寒 5362
弓 5363
租 5364
揉 5365
蛩 5366
绽 5367
髫 5368
劃 5369
絮 5370
吥 5371
咛 5372
帐 5373
康 5374
mail 5375
鹏 5376
發 5377
僳 5378
恺 5379
統 5380
腋 5381
墉 5382
丈 5383
浩 5384
温 5385
楷 5386
潮 5387
孔 5388
拇 5389
老 5390
bel@@ 5391
漉 5392
馍 5393
范 5394
姑 5395
迎 5396
苒 5397
佼 5398
轲 5399
孺 5400
沸 5401
昙 5402
ort 5403
鞥 5404
拄 5405
not 5406
ws 5407
ff@@ 5408
镭 5409
寮 5410
direc@@ 5411
磊 5412
鏖 5413
鸭 5414
绀 5415
沒 5416
殂 5417
惬 5418
笑 5419
溥 5420
寅 5421
诂 5422
陪 5423
白 5424
还 5425
ber 5426
fun@@ 5427
琐 5428
斗 5429
钠 5430
贷 5431
蹬 5432
慢 5433
淳 5434
颍 5435
竟 5436
煞 5437
楠 5438
take 5439
含 5440
犇 5441
羟 5442
间 5443
樣 5444
隔 5445
后 5446
would 5447
司 5448
禽 5449
枚 5450
审 5451
乏 5452
陡 5453
跷 5454
迁 5455
隗 5456
挖 5457
彘 5458
搐 5459
枥 5460
洱 5461
刈 5462
vers@@ 5463
贴 5464
祠 5465
查 5466
闾 5467
拊 5468
咸 5469
癌 5470
玷 5471
ia 5472
蛤 5473
殉 5474
ly@@ 5475
呵 5476
碟 5477
疥 5478
柜 5479
钾 5480
茗 5481
虏 5482
增 5483
焦 5484
can@@ 5485
鹧 5486
零 5487
雇 5488
锃 5489
嚣 5490
沆 5491
篱 5492
達 5493
瘩 5494
渝 5495
顿 5496
a 5497
涓 5498
睿 5499
嗡 5500
倪 5501
ep@@ 5502
镌 5503
嵘 5504
诤 5505
皈 5506
妲 5507
专 5508
濠 5509
管 5510
ale 5511
垡 5512
猥 5513
蛳 5514
甘 5515
ff 5516
att@@ 5517
轭 5518
興 5519
环 5520
蔚 5521
骊 5522
珪 5523
济 5524
跹 5525
刃 5526
漾 5527
祖 5528
碉 5529
车 5530
殄 5531
荣 5532
stor@@ 5533
荠 5534
畔 5535
sp@@ 5536
髅 5537
commun@@ 5538
邬 5539
缱 5540
杌 5541
肯 5542
讯 5543
类 5544
篓 5545
恪 5546
廿 5547
赈 5548
埙 5549
龊 5550
蚓 5551
树 5552
监 5553
载 5554
匙 5555
谆 5556
muc@@ 5557
盥 5558
襄 5559
烯 5560
燒 5561
ys@@ 5562
my@@ 5563
忒 5564
谊 5565
闺 5566
ly 5567
vi@@ 5568
謇 5569
玳 5570
襁 5571
票 5572
ace 5573
讳 5574
寇 5575
卬 5576
咫 5577
毅 5578
陶 5579
玥 5580
惩 5581
啡 5582
疾 5583
霜 5584
闰 5585
項 5586
抹 5587
赡 5588
致 5589
馒 5590
赌 5591
驱 5592
ju@@ 5593
仿 5594
椽 5595
啫 5596
play 5597
篮 5598
ver 5599
飚 5600
gra@@ 5601
憧 5602
怏 5603
寂 5604
赭 5605
苹 5606
斫 5607
嘚 5608
lin@@ 5609
演 5610
翳 5611
俑 5612
do 5613
掺 5614
涞 5615
se@@ 5616
赊 5617
壞 5618
录 5619
慧 5620
悖 5621
邻 5622
萄 5623
硅 5624
困 5625
霉 5626
院 5627
偿 5628
沭 5629
欤 5630
rela@@ 5631
友 5632
撕 5633
唵 5634
点 5635
铎 5636
醋 5637
诿 5638
淫 5639
惑 5640
棋 5641
帏 5642
薷 5643
再 5644
椿 5645
谓 5646
矗 5647
腆 5648
湃 5649
贽 5650
咯 5651
催 5652
碘 5653
琪 5654
被 5655
闱 5656
殒 5657
醇 5658
个 5659
趔 5660
耸 5661
嵊 5662
珐 5663
拟 5664
政 5665
挺 5666
倘 5667
昴 5668
折 5669
害 5670
靓 5671
練 5672
概 5673
状 5674
on@@ 5675
筠 5676
缓 5677
凑 5678
巾 5679
仰 5680
黢 5681
嘔 5682
弊 5683
精 5684
练 5685
衬 5686
酶 5687
漆 5688
谪 5689
劭 5690
舰 5691
洞 5692
bet@@ 5693
恳 5694
mor@@ 5695
韧 5696
踊 5697
脱 5698
翘 5699
淬 5700
瞅 5701
袜 5702
翠 5703
涧 5704
down 5705
航 5706
缢 5707
ce@@ 5708
畸 5709
虢 5710
ce 5711
dec@@ 5712
洼 5713
乌 5714
菱 5715
really 5716
will 5717
在 5718
饽 5719
仅 5720
郅 5721
抗 5722
唉 5723
ey 5724
瘠 5725
仡 5726
星 5727
瓯 5728
疼 5729
拯 5730
蒋 5731
荫 5732
导 5733
刁 5734
fu@@ 5735
嘱 5736
ght 5737
俞 5738
翊 5739
冻 5740
like 5741
咂 5742
芪 5743
袁 5744
筛 5745
委 5746
啼 5747
spe@@ 5748
拨 5749
乖 5750
褓 5751
蹴 5752
噔 5753
茏 5754
羊 5755
age 5756
le 5757
气 5758
庄 5759
纸 5760
嘲 5761
逶 5762
pos@@ 5763
苜 5764
沦 5765
冷 5766
時 5767
息 5768
镯 5769
台 5770
樂 5771
励 5772
fin@@ 5773
葱 5774
澜 5775
琳 5776
兽 5777
怪 5778
阐 5779
健 5780
研 5781
狡 5782
楼 5783
昝 5784
槐 5785
渣 5786
獗 5787
best 5788
隘 5789
僭 5790
oo@@ 5791
脉 5792
运 5793
部 5794
成 5795
唛 5796
恕 5797
鸦 5798
比 5799
尴 5800
art 5801
歉 5802
玠 5803
遣 5804
樟 5805
螨 5806
腓 5807
湍 5808
铊 5809
谦 5810
秉 5811
逛 5812
飕 5813
ber@@ 5814
祜 5815
懋 5816
值 5817
嘌 5818
刽 5819
乞 5820
挑 5821
遂 5822
鸣 5823
褂 5824
衾 5825
浓 5826
簌 5827
茼 5828
觑 5829
般 5830
畅 5831
裾 5832
烧 5833
郑 5834
il 5835
窑 5836
掂 5837
焕 5838
燮 5839
噜 5840
仆 5841
舫 5842
苷 5843
仙 5844
缝 5845
ved 5846
決 5847
泓 5848
焐 5849
砧 5850
ds 5851
拒 5852
辊 5853
狍 5854
冉 5855
爸 5856
會 5857
傺 5858
龢 5859
冬 5860
诟 5861
涎 5862
饭 5863
video 5864
纨 5865
涌 5866
處 5867
搽 5868
瞭 5869
奉 5870
赢 5871
媽 5872
睢 5873
辽 5874
饶 5875
画 5876
记 5877
self 5878
镔 5879
ement 5880
靡 5881
鸠 5882
鳑 5883
秤 5884
暝 5885
na@@ 5886
窣 5887
诳 5888
丫 5889
肽 5890
惊 5891
揪 5892
難 5893
萍 5894
队 5895
勔 5896
灰 5897
蜡 5898
梧 5899
親 5900
阜 5901
芮 5902
resp@@ 5903
school 5904
砝 5905
硼 5906
鲇 5907
墨 5908
捻 5909
ese 5910
操 5911
ting 5912
卫 5913
勘 5914
鄄 5915
羧 5916
滴 5917
示 5918
瘌 5919
栀 5920
建 5921
business 5922
虓 5923
荧 5924
剽 5925
nor@@ 5926
side 5927
罩 5928
兆 5929
骋 5930
搡 5931
at@@ 5932
榈 5933
婊 5934
逸 5935
杆 5936
should 5937
蹉 5938
桐 5939
枪 5940
语 5941
柱 5942
啜 5943
岔 5944
榫 5945
lan@@ 5946
ying 5947
越 5948
归 5949
魚 5950
呱 5951
祉 5952
ur@@ 5953
魇 5954
狲 5955
屐 5956
麾 5957
曦 5958
蟊 5959
rent 5960
鞑 5961
鑫 5962
升 5963
舛 5964
筑 5965
室 5966
call@@ 5967
ster@@ 5968
蜍 5969
port@@ 5970
help 5971
克 5972
拘 5973
耶 5974
ter@@ 5975
销 5976
孑 5977
tag@@ 5978
use 5979
痧 5980
瘤 5981
隐 5982
圳 5983
珥 5984
娆 5985
輩 5986
恻 5987
睐 5988
癸 5989
孚 5990
洇 5991
啐 5992
祚 5993
炴 5994
缩 5995
诬 5996
山 5997
蟀 5998
简 5999
個 6000
箬 6001
闵 6002
智 6003
pr@@ 6004
ie@@ 6005
蝇 6006
摘 6007
塘 6008
启 6009
挂 6010
密 6011
逅 6012
尊 6013
at 6014
酊 6015
冯 6016
破 6017
术 6018
rec@@ 6019
膈 6020
槃 6021
肚 6022
辛 6023
泻 6024
pol@@ 6025
秦 6026
纹 6027
瞟 6028
-@@ 6029
蛔 6030
畦 6031
扛 6032
羸 6033
核 6034
睡 6035
癯 6036
贩 6037
飒 6038
hu@@ 6039
沈 6040
beau@@ 6041
纤 6042
sh@@ 6043
侈 6044
de@@ 6045
毖 6046
be 6047
溟 6048
权 6049
仁 6050
巢 6051
橋 6052
you'@@ 6053
答 6054
估 6055
桀 6056
experi@@ 6057
杨 6058
疚 6059
comple@@ 6060
营 6061
畫 6062
圃 6063
肴 6064
術 6065
oc@@ 6066
随 6067
萧 6068
刮 6069
噤 6070
str@@ 6071
舱 6072
盛 6073
叛 6074
榔 6075
ms 6076
哏 6077
易 6078
偏 6079
池 6080
濡 6081
蛾 6082
疮 6083
骟 6084
me@@ 6085
沥 6086
講 6087
柯 6088
淅 6089
进 6090
ev@@ 6091
映 6092
枉 6093
未 6094
缟 6095
妈 6096
大 6097
畈 6098
唤 6099
滿 6100
廊 6101
裤 6102
簸 6103
顺 6104
剪 6105
琴 6106
ree 6107
狄 6108
珀 6109
塌 6110
脚 6111
芒 6112
媒 6113
蚩 6114
蹰 6115
wom@@ 6116
肋 6117
偎 6118
边 6119
徙 6120
鼾 6121
桁 6122
par@@ 6123
換 6124
圾 6125
棂 6126
果 6127
num@@ 6128
丛 6129
峤 6130
颞 6131
佟 6132
攘 6133
赏 6134
景 6135
汕 6136
惧 6137
有 6138
轴 6139
yes 6140
舀 6141
哓 6142
誓 6143
manag@@ 6144
name 6145
鲲 6146
狻 6147
吴 6148
饰 6149
叼 6150
她 6151
利 6152
鼹 6153
he 6154
sto@@ 6155
慰 6156
peop@@ 6157
阿 6158
螯 6159
ro@@ 6160
蔼 6161
媛 6162
箐 6163
their 6164
than@@ 6165
撤 6166
op@@ 6167
弱 6168
梗 6169
快 6170
暄 6171
葚 6172
齑 6173
阕 6174
穷 6175
缈 6176
蕖 6177
邦 6178
纛 6179
底 6180
傳 6181
郏 6182
胫 6183
s 6184
镕 6185
sing 6186
蘸 6187
隰 6188
唰 6189
等 6190
cr@@ 6191
玫 6192
歷 6193
心 6194
够 6195
俭 6196
氙 6197
楹 6198
dd@@ 6199
置 6200
俐 6201
our@@ 6202
栗 6203
船 6204
垦 6205
雕 6206
根 6207
翔 6208
塔 6209
诓 6210
础 6211
him 6212
巴 6213
伐 6214
谰 6215
av@@ 6216
俚 6217
弛 6218
宋 6219
獾 6220
胡 6221
物 6222
庭 6223
昶 6224
退 6225
矶 6226
漫 6227
濮 6228
骝 6229
章 6230
華 6231
签 6232
might 6233
腼 6234
咏 6235
迷 6236
角 6237
汛 6238
come 6239
谌 6240
纬 6241
徜 6242
end@@ 6243
灸 6244
肌 6245
胳 6246
膨 6247
足 6248
殃 6249
寓 6250
mation 6251
吱 6252
磨 6253
萃 6254
媳 6255
农 6256
综 6257
教 6258
飙 6259
呖 6260
痕 6261
蹼 6262
尼 6263
鹗 6264
純 6265
愼 6266
窜 6267
sti@@ 6268
嘞 6269
开 6270
诙 6271
戰 6272
蜈 6273
债 6274
巩 6275
蕙 6276
kno@@ 6277
僻 6278
沅 6279
贯 6280
厢 6281
cont@@ 6282
喜 6283
拂 6284
wer 6285
簿 6286
纽 6287
漩 6288
生 6289
借 6290
蔷 6291
忡 6292
林 6293
邮 6294
量 6295
椴 6296
ra@@ 6297
阻 6298
雏 6299
鲢 6300
噌 6301
體 6302
钦 6303
ere 6304
莽 6305
even 6306
疍 6307
觀 6308
please 6309
負 6310
痿 6311
赃 6312
濛 6313
津 6314
续 6315
來 6316
御 6317
級 6318
差 6319
霓 6320
韦 6321
曹 6322
塊 6323
铿 6324
let 6325
鸡 6326
砷 6327
畴 6328
殿 6329
愫 6330
陋 6331
跡 6332
麻 6333
准 6334
体 6335
朽 6336
马 6337
l 6338
咾 6339
茔 6340
袈 6341
砯 6342
界 6343
它 6344
外 6345
谟 6346
猊 6347
驮 6348
x 6349
斯 6350
麟 6351
螃 6352
卡 6353
械 6354
君 6355
级 6356
沧 6357
敏 6358
瞩 6359
呓 6360
縣 6361
罕 6362
淆 6363
诸 6364
镁 6365
驰 6366
ei@@ 6367
id 6368
酿 6369
拢 6370
拉 6371
屑 6372
巨 6373
揍 6374
膳 6375
馀 6376
子 6377
懈 6378
鬶 6379
芙 6380
幄 6381
绦 6382
闫 6383
龙 6384
ter 6385
夫 6386
始 6387
鲷 6388
遑 6389
ever 6390
ning 6391
璇 6392
季 6393
忧 6394
绺 6395
黯 6396
pe@@ 6397
不 6398
欺 6399
恣 6400
觉 6401
海 6402
瞻 6403
sible 6404
财 6405
倨 6406
圄 6407
區 6408
吭 6409
犸 6410
轼 6411
mil@@ 6412
黔 6413
堑 6414
也 6415
箭 6416
骚 6417
is@@ 6418
貅 6419
com 6420
喙 6421
伤 6422
绩 6423
泄 6424
遍 6425
game 6426
扥 6427
案 6428
弋 6429
苞 6430
隙 6431
躏 6432
l@@ 6433
猱 6434
伽 6435
位 6436
嗑 6437
淦 6438
扯 6439
讹 6440
ma@@ 6441
传 6442
au@@ 6443
躁 6444
嵩 6445
味 6446
in 6447
戟 6448
陨 6449
啮 6450
猾 6451
喆 6452
微 6453
涂 6454
唯 6455
man@@ 6456
徇 6457
汪 6458
苔 6459
谏 6460
ents 6461
步 6462
胶 6463
卯 6464
啾 6465
肛 6466
ood 6467
谐 6468
冒 6469
晓 6470
木 6471
arti@@ 6472
汝 6473
举 6474
鲀 6475
机 6476
璎 6477
消 6478
叶 6479
悬 6480
昂 6481
疟 6482
瓤 6483
骘 6484
女 6485
镗 6486
册 6487
龘 6488
桎 6489
雨 6490
攸 6491
選 6492
坚 6493
攒 6494
伢 6495
阏 6496
泽 6497
body 6498
眈 6499
伴 6500
捕 6501
漠 6502
祐 6503
苏 6504
抿 6505
孪 6506
幼 6507
冽 6508
距 6509
els 6510
坂 6511
氟 6512
her 6513
酝 6514
萸 6515
咦 6516
猁 6517
ze 6518
仃 6519
鲸 6520
胍 6521
纪 6522
岙 6523
盔 6524
妆 6525
韬 6526
視 6527
娱 6528
ited 6529
蒸 6530
敲 6531
砸 6532
ready 6533
used 6534
呔 6535
坏 6536
谎 6537
躲 6538
搂 6539
than 6540
粘 6541
漯 6542
尽 6543
char@@ 6544
赖 6545
优 6546
糠 6547
怦 6548
努 6549
蛏 6550
玑 6551
寰 6552
妻 6553
計 6554
ni@@ 6555
汀 6556
you@@ 6557
跞 6558
忻 6559
邵 6560
妒 6561
恬 6562
吧 6563
泞 6564
睬 6565
噪 6566
褔 6567
衜 6568
朱 6569
uc@@ 6570
钣 6571
锡 6572
巷 6573
佑 6574
唬 6575
芷 6576
釜 6577
合 6578
召 6579
娓 6580
尘 6581
烃 6582
could 6583
衣 6584
唧 6585
俱 6586
绮 6587
sion 6588
弃 6589
靈 6590
睨 6591
酣 6592
髓 6593
祯 6594
just 6595
煎 6596
橐 6597
扉 6598
床 6599
宠 6600
莺 6601
崩 6602
疡 6603
坪 6604
by 6605
ten@@ 6606
pat@@ 6607
偻 6608
狱 6609
厩 6610
辗 6611
怡 6612
滦 6613
毡 6614
领 6615
寞 6616
势 6617
開 6618
抱 6619
旯 6620
桧 6621
皋 6622
峥 6623
逐 6624
祝 6625
嚼 6626
頂 6627
澳 6628
嚅 6629
悠 6630
n't 6631
there 6632
扼 6633
踽 6634
est 6635
菪 6636
坡 6637
ver@@ 6638
佐 6639
笨 6640
簪 6641
跋 6642
踟 6643
按 6644
倾 6645
麓 6646
饿 6647
迸 6648
悱 6649
掏 6650
桃 6651
皖 6652
淼 6653
americ@@ 6654
婀 6655
驴 6656
旖 6657
領 6658
捶 6659
笞 6660
讪 6661
丨 6662
缺 6663
揾 6664
件 6665
想 6666
姗 6667
晏 6668
两 6669
狮 6670
撑 6671
槿 6672
悟 6673
prob@@ 6674
遊 6675
括 6676
sec@@ 6677
掉 6678
脍 6679
喉 6680
仟 6681
nat@@ 6682
here 6683
舐 6684
都 6685
課 6686
儡 6687
列 6688
贺 6689
疱 6690
娶 6691
沪 6692
本 6693
瘦 6694
web 6695
胺 6696
ys 6697
苋 6698
still 6699
愧 6700
螅 6701
兑 6702
峙 6703
恰 6704
裹 6705
勃 6706
坦 6707
憷 6708
ars 6709
cou@@ 6710
ore 6711
姝 6712
缘 6713
毗 6714
茌 6715
艘 6716
blog@@ 6717
哲 6718
熵 6719
茑 6720
暧 6721
钝 6722
澶 6723
廣 6724
莠 6725
争 6726
劵 6727
尺 6728
姣 6729
ess 6730
苫 6731
觅 6732
湛 6733
愉 6734
觸 6735
ation 6736
媾 6737
豺 6738
掳 6739
釉 6740
ag@@ 6741
俎 6742
叟 6743
弗 6744
瘢 6745
邺 6746
邢 6747
struc@@ 6748
颅 6749
岛 6750
工 6751
ap@@ 6752
膘 6753
驽 6754
吽 6755
sc@@ 6756
哦 6757
涮 6758
bs 6759
坤 6760
称 6761
漱 6762
ns 6763
砍 6764
因 6765
喵 6766
蕊 6767
绡 6768
贰 6769
tting 6770
疴 6771
ining 6772
顽 6773
榻 6774
確 6775
尻 6776
enc@@ 6777
馊 6778
q@@ 6779
仩 6780
st 6781
惺 6782
喑 6783
骛 6784
life 6785
头 6786
be@@ 6787
茧 6788
site 6789
瑷 6790
line 6791
疆 6792
窘 6793
旬 6794
没 6795
厕 6796
邳 6797
觐 6798
嬷 6799
闳 6800
傀 6801
ben@@ 6802
米 6803
凫 6804
is 6805
剜 6806
卜 6807
桥 6808
裔 6809
苻 6810
i 6811
夯 6812
霍 6813
倕 6814
呛 6815
俶 6816
kes 6817
褚 6818
冶 6819
漳 6820
吕 6821
痛 6822
萦 6823
侣 6824
侵 6825
砭 6826
斓 6827
饴 6828
day 6829
斤 6830
dent 6831
蜣 6832
闲 6833
z@@ 6834
棍 6835
王 6836
筪 6837
魂 6838
bro@@ 6839
sul@@ 6840
ish@@ 6841
战 6842
ail@@ 6843
se 6844
辈 6845
瑙 6846
惚 6847
world 6848
枢 6849
蝌 6850
蓥 6851
澎 6852
牧 6853
nec@@ 6854
刻 6855
镫 6856
哄 6857
葺 6858
疽 6859
脲 6860
侧 6861
猝 6862
腈 6863
灌 6864
窦 6865
猛 6866
資 6867
擤 6868
汞 6869
鼓 6870
溆 6871
梁 6872
form@@ 6873
嘁 6874
價 6875
廟 6876
崤 6877
天 6878
門 6879
桓 6880
浊 6881
券 6882
揶 6883
them 6884
序 6885
掀 6886
锈 6887
甄 6888
构 6889
馥 6890
for@@ 6891
珣 6892
遺 6893
把 6894
邗 6895
鳞 6896
隼 6897
質 6898
評 6899
扎 6900
旋 6901
腕 6902
ted 6903
炽 6904
谲 6905
镇 6906
ined 6907
淤 6908
殴 6909
thr@@ 6910
晒 6911
ful@@ 6912
before 6913
act 6914
箕 6915
踩 6916
臣 6917
扒 6918
桴 6919
晤 6920
咳 6921
帚 6922
崖 6923
ll@@ 6924
魅 6925
呜 6926
磾 6927
尖 6928
岂 6929
从 6930
黑 6931
no@@ 6932
腌 6933
芨 6934
拿 6935
股 6936
愁 6937
谑 6938
九 6939
elec@@ 6940
書 6941
稳 6942
莱 6943
犨 6944
地 6945
赤 6946
扬 6947
祛 6948
琨 6949
榮 6950
匝 6951
窨 6952
蚀 6953
傥 6954
晕 6955
杰 6956
費 6957
采 6958
拙 6959
韵 6960
璨 6961
臺 6962
蔻 6963
抚 6964
now 6965
朵 6966
桌 6967
由 6968
潘 6969
骼 6970
潼 6971
ci@@ 6972
咀 6973
tly 6974
阈 6975
朝 6976
支 6977
怵 6978
伍 6979
稔 6980
裨 6981
龇 6982
挫 6983
put 6984
感 6985
棰 6986
cli@@ 6987
鲱 6988
炼 6989
d 6990
夭 6991
囊 6992
汶 6993
垩 6994
淹 6995
饮 6996
戳 6997
膺 6998
擔 6999
样 7000
滘 7001
就 7002
唁 7003
止 7004
套 7005
町 7006
唑 7007
杭 7008
ple@@ 7009
star@@ 7010
敗 7011
罪 7012
lar@@ 7013
泌 7014
舒 7015
膊 7016
卑 7017
麒 7018
t@@ 7019
之 7020
科 7021
承 7022
碜 7023
崛 7024
绪 7025
计 7026
橹 7027
az@@ 7028
侍 7029
适 7030
颛 7031
胛 7032
眩 7033
積 7034
戕 7035
log@@ 7036
筐 7037
雱 7038
夜 7039
紋 7040
涕 7041
mo@@ 7042
red 7043
恹 7044
鹄 7045
镂 7046
扫 7047
婿 7048
棄 7049
晴 7050
罔 7051
衿 7052
阔 7053
ici@@ 7054
榨 7055
飓 7056
笺 7057
厂 7058
兹 7059
蚝 7060
ex@@ 7061
衩 7062
嘻 7063
疫 7064
as 7065
佰 7066
欧 7067
師 7068
蝰 7069
贻 7070
ist 7071
抢 7072
盖 7073
捏 7074
must 7075
ish 7076
ster 7077
圻 7078
壳 7079
艰 7080
黍 7081
渊 7082
嘏 7083
尾 7084
柚 7085
缛 7086
以 7087
蹭 7088
post 7089
奠 7090
洲 7091
荑 7092
律 7093
res 7094
器 7095
涤 7096
眼 7097
杲 7098
own 7099
测 7100
ink 7101
刘 7102
囚 7103
告 7104
斋 7105
字 7106
珅 7107
藁 7108
现 7109
凳 7110
厉 7111
coun@@ 7112
禄 7113
鲠 7114
only 7115
州 7116
梢 7117
肝 7118
秸 7119
狰 7120
产 7121
炀 7122
握 7123
豹 7124
埃 7125
泵 7126
驾 7127
额 7128
峒 7129
鄉 7130
婧 7131
鹘 7132
慨 7133
恒 7134
巳 7135
if 7136
遨 7137
经 7138
热 7139
润 7140
梓 7141
斩 7142
馨 7143
失 7144
摔 7145
產 7146
氦 7147
轸 7148
靴 7149
煌 7150
泥 7151
陝 7152
匡 7153
阴 7154
郗 7155
垌 7156
廓 7157
伉 7158
捌 7159
焘 7160
look 7161
丞 7162
跎 7163
罡 7164
off@@ 7165
鸨 7166
藍 7167
stri@@ 7168
渲 7169
卤 7170
g 7171
#0 7172
#1 7173
